<unk>	0
<s>	0
</s>	0
▁	-2.63124
▁the	-3.25396
a	-3.60565
s	-3.68973
▁of	-3.90819
▁and	-3.98134
▁to	-4.01801
▁in	-4.25963
t	-4.59549
i	-4.69284
▁is	-4.70866
▁for	-4.90451
e	-4.92866
o	-5.14897
▁that	-5.17735
d	-5.17763
▁on	-5.26968
▁it	-5.28494
▁you	-5.29362
▁with	-5.30647
n	-5.33738
▁or	-5.34781
▁as	-5.37083
▁are	-5.42299
▁be	-5.55603
m	-5.6129
▁by	-5.61809
r	-5.63954
▁this	-5.64871
▁from	-5.69214
c	-5.70685
▁1	-5.79682
▁your	-5.84703
▁was	-5.8547
▁an	-5.87902
▁can	-5.93381
▁have	-5.9433
▁not	-5.96676
p	-6.03067
▁2	-6.03596
y	-6.03862
l	-6.04737
b	-6.09393
0	-6.13533
f	-6.15298
▁more	-6.18514
h	-6.20091
▁if	-6.22419
u	-6.23582
g	-6.2737
▁3	-6.30635
▁but	-6.31103
▁will	-6.35182
▁all	-6.35527
▁they	-6.36307
▁he	-6.40372
▁one	-6.40753
k	-6.43929
▁has	-6.44109
▁which	-6.45069
▁5	-6.46206
▁may	-6.46895
▁what	-6.48498
ing	-6.49552
▁4	-6.50574
▁also	-6.53981
▁when	-6.54852
▁other	-6.5859
▁about	-6.59857
▁their	-6.61415
▁new	-6.61771
▁we	-6.622
▁do	-6.63794
▁his	-6.64073
v	-6.6535
▁how	-6.68894
▁up	-6.69136
▁time	-6.70223
▁10	-6.72855
▁there	-6.73498
▁no	-6.77117
w	-6.79134
▁out	-6.79549
▁my	-6.80687
▁6	-6.80733
▁who	-6.84043
▁some	-6.87856
▁were	-6.88048
▁like	-6.89317
x	-6.89359
▁than	-6.90835
▁after	-6.92425
▁her	-6.93201
▁use	-6.95595
▁8	-6.95686
▁most	-6.96016
▁7	-6.96048
▁see	-6.96282
▁these	-6.98395
▁first	-7.00184
▁she	-7.01785
▁any	-7.05333
▁into	-7.05466
▁been	-7.06071
▁had	-7.06117
▁years	-7.06308
in	-7.06687
▁would	-7.068
▁people	-7.07112
▁get	-7.08484
▁only	-7.09493
j	-7.09592
1	-7.12131
▁over	-7.12297
▁9	-7.12654
▁re	-7.14154
▁two	-7.15034
▁used	-7.16635
▁its	-7.1942
on	-7.22588
▁our	-7.23464
▁many	-7.23486
▁year	-7.23611
2	-7.24166
th	-7.24584
▁such	-7.2505
▁12	-7.25785
ly	-7.25905
▁should	-7.29249
▁just	-7.30389
▁make	-7.32459
▁day	-7.36883
z	-7.37075
▁000	-7.37171
▁state	-7.39483
▁edit	-7.39767
▁me	-7.39945
▁com	-7.40131
▁11	-7.4033
▁water	-7.40683
▁because	-7.40816
▁information	-7.42216
▁them	-7.43255
▁us	-7.44408
▁does	-7.45421
▁well	-7.46234
▁where	-7.47009
retrieved	-7.47868
3	-7.47956
▁work	-7.48078
▁between	-7.48213
▁now	-7.48628
▁20	-7.48698
▁15	-7.48789
▁high	-7.4927
▁need	-7.49333
▁very	-7.49486
▁during	-7.51663
▁through	-7.52148
▁back	-7.5245
▁name	-7.53445
▁am	-7.53972
▁help	-7.54912
▁number	-7.5496
▁home	-7.55241
▁while	-7.5594
▁before	-7.56075
▁world	-7.56972
▁take	-7.5749
▁system	-7.57748
▁good	-7.57808
▁much	-7.58582
▁go	-7.59052
▁free	-7.59108
▁best	-7.59541
an	-7.59985
▁long	-7.60929
▁even	-7.61211
▁way	-7.61531
▁each	-7.61855
4	-7.63118
▁under	-7.63557
▁health	-7.6376
▁30	-7.63763
▁don	-7.63998
▁could	-7.65144
▁life	-7.65899
▁18	-7.67513
▁per	-7.68441
is	-7.6851
q	-7.69631
▁made	-7.69843
▁states	-7.70138
▁16	-7.70423
▁14	-7.70889
▁here	-7.71322
▁part	-7.7135
▁same	-7.7149
▁know	-7.72794
▁being	-7.73113
▁city	-7.73742
▁13	-7.73813
▁show	-7.74361
▁american	-7.75253
▁both	-7.76308
▁using	-7.78686
▁2016	-7.79026
▁00	-7.79898
▁find	-7.80002
▁right	-7.80472
▁ago	-7.80624
▁2017	-7.80887
▁25	-7.81288
▁17	-7.81385
▁however	-7.81544
▁found	-7.81651
▁body	-7.81715
▁those	-7.82187
▁de	-7.83146
5	-7.84338
▁united	-7.84562
▁blood	-7.84819
▁off	-7.84869
▁down	-7.84992
▁must	-7.85522
▁different	-7.85715
▁want	-7.85874
▁data	-7.85997
▁three	-7.87466
▁him	-7.87653
▁top	-7.88045
▁2015	-7.88184
▁service	-7.88622
▁type	-7.89311
▁school	-7.89862
▁2014	-7.90187
▁family	-7.91017
▁read	-7.91501
▁said	-7.92523
or	-7.92638
▁great	-7.93851
▁county	-7.93932
▁food	-7.94059
▁last	-7.94111
▁often	-7.94366
▁2013	-7.9476
▁called	-7.95281
able	-7.95314
▁around	-7.95648
▁old	-7.95724
▁24	-7.9601
▁2012	-7.96075
▁average	-7.96206
▁still	-7.96324
▁another	-7.96536
us	-7.97001
▁including	-7.97641
▁since	-7.97918
▁full	-7.98102
▁did	-7.9898
▁company	-7.99091
▁days	-7.99104
▁based	-7.99875
▁related	-8.0007
▁2010	-8.0014
▁business	-8.00281
▁100	-8.00609
▁small	-8.00879
▁19	-8.00925
▁50	-8.01378
▁2018	-8.01528
▁set	-8.02091
▁end	-8.02223
ll	-8.0274
▁21	-8.02824
▁history	-8.02984
▁co	-8.03314
▁available	-8.03412
▁care	-8.03808
▁page	-8.04105
▁place	-8.04268
▁view	-8.04489
▁white	-8.04776
▁2011	-8.04908
▁include	-8.05159
▁example	-8.05273
▁al	-8.05402
▁age	-8.0552
▁without	-8.05528
▁national	-8.06139
▁cost	-8.06203
▁form	-8.06466
▁following	-8.06557
▁own	-8.06567
▁known	-8.08381
▁person	-8.0867
▁low	-8.08698
▁common	-8.08973
▁university	-8.0905
▁why	-8.09387
▁every	-8.09649
▁side	-8.0975
▁medical	-8.09783
6	-8.10013
▁group	-8.10398
▁black	-8.10682
▁22	-8.11142
▁list	-8.1138
▁air	-8.11821
▁treatment	-8.12218
▁un	-8.13091
▁power	-8.13114
▁level	-8.13144
▁non	-8.13605
man	-8.13626
▁order	-8.13684
▁change	-8.13708
▁next	-8.13861
▁less	-8.14243
▁share	-8.14515
▁point	-8.14561
▁cause	-8.1523
▁disease	-8.15259
▁house	-8.15784
▁general	-8.16054
▁march	-8.16508
▁pain	-8.16727
▁23	-8.17
▁area	-8.17268
▁within	-8.17398
▁important	-8.17719
▁original	-8.18065
▁public	-8.18069
▁car	-8.18071
▁children	-8.18141
▁rate	-8.18291
▁usually	-8.18345
▁date	-8.18864
▁war	-8.19176
▁symptoms	-8.19459
▁answer	-8.19557
▁york	-8.20556
▁ve	-8.20844
▁times	-8.21249
▁center	-8.21287
▁control	-8.21442
▁post	-8.21545
▁april	-8.21674
▁think	-8.21783
▁man	-8.21924
▁process	-8.21962
▁large	-8.22086
▁law	-8.22606
▁article	-8.22775
▁look	-8.23051
▁services	-8.23079
▁test	-8.23233
▁star	-8.23663
▁english	-8.23743
▁add	-8.23911
▁hours	-8.24036
▁little	-8.2412
▁comment	-8.24486
▁28	-8.24489
▁26	-8.24914
▁line	-8.25184
▁pm	-8.25719
▁second	-8.26095
▁few	-8.26219
to	-8.26398
▁2009	-8.26709
▁27	-8.27185
▁might	-8.27269
▁red	-8.27558
▁tax	-8.28017
▁case	-8.28199
▁support	-8.28343
▁29	-8.29634
▁until	-8.29666
▁keep	-8.29843
▁patients	-8.30169
▁north	-8.30209
▁better	-8.30322
▁due	-8.30818
▁video	-8.3103
▁open	-8.31187
▁heart	-8.31402
▁research	-8.31445
▁price	-8.31845
the	-8.31851
7	-8.31897
▁2008	-8.32124
▁government	-8.32499
▁january	-8.32575
▁love	-8.32779
▁several	-8.33691
▁report	-8.33718
▁early	-8.33935
▁skin	-8.34065
▁below	-8.34104
▁total	-8.34188
▁local	-8.34316
▁value	-8.34412
▁south	-8.34578
▁left	-8.34842
▁program	-8.34852
▁mc	-8.349
8	-8.34947
▁check	-8.35816
▁size	-8.35873
▁human	-8.35887
▁code	-8.36043
▁light	-8.36111
▁women	-8.3618
▁never	-8.36497
▁series	-8.36848
▁once	-8.36864
▁july	-8.3716
▁term	-8.37229
▁says	-8.37278
▁40	-8.37677
▁start	-8.37806
▁june	-8.37951
▁later	-8.38282
▁really	-8.38582
▁office	-8.38593
▁pay	-8.3871
▁click	-8.38717
▁give	-8.38782
▁months	-8.38915
▁four	-8.39062
▁review	-8.39214
▁population	-8.39546
▁learn	-8.39587
▁john	-8.39684
▁amount	-8.39834
▁2007	-8.4018
▁risk	-8.40221
▁source	-8.40325
▁www	-8.40646
▁main	-8.40652
▁always	-8.40762
▁against	-8.40909
▁dr	-8.41063
▁reply	-8.41499
▁live	-8.41644
▁come	-8.41704
▁child	-8.41963
▁october	-8.42697
▁online	-8.42729
▁game	-8.42736
▁september	-8.43732
▁call	-8.43946
▁things	-8.44126
▁going	-8.44177
▁real	-8.44464
▁doctor	-8.45024
▁become	-8.45047
▁oil	-8.4515
▁study	-8.45239
▁away	-8.45479
▁31	-8.4575
▁means	-8.45933
▁august	-8.46141
▁energy	-8.46227
▁site	-8.46249
▁december	-8.46646
▁social	-8.46688
▁provide	-8.47078
▁la	-8.47262
▁having	-8.47314
▁weight	-8.47363
▁above	-8.47606
▁money	-8.47721
▁say	-8.47767
▁miles	-8.47835
▁sure	-8.47962
▁possible	-8.48128
▁book	-8.48318
▁something	-8.48409
▁please	-8.4872
▁experience	-8.49028
▁cell	-8.49171
▁word	-8.49245
▁news	-8.49384
▁period	-8.49413
▁making	-8.49757
▁cells	-8.50322
▁major	-8.5036
▁november	-8.50528
re	-8.50745
▁current	-8.50757
▁01	-8.50791
▁effects	-8.50819
▁act	-8.51111
▁today	-8.51138
▁contact	-8.51182
▁season	-8.51707
▁single	-8.51832
▁men	-8.52539
▁put	-8.52658
▁night	-8.52906
▁february	-8.53015
▁given	-8.53079
▁big	-8.53362
▁income	-8.53463
▁although	-8.53484
▁country	-8.53491
▁million	-8.5355
▁search	-8.53744
▁again	-8.5386
▁pressure	-8.53973
▁tv	-8.54039
ers	-8.54056
▁phone	-8.54258
▁questions	-8.54539
▁plan	-8.54658
▁results	-8.54819
9	-8.54936
▁products	-8.54942
▁court	-8.55035
▁though	-8.55315
▁lower	-8.55321
▁required	-8.55352
▁causes	-8.55799
▁head	-8.56053
▁http	-8.56516
▁question	-8.56615
▁west	-8.56687
▁lot	-8.57111
▁management	-8.57331
▁product	-8.57588
▁range	-8.57765
▁music	-8.57941
▁account	-8.58114
▁special	-8.58135
▁least	-8.58138
▁ca	-8.58287
▁short	-8.58528
▁section	-8.58534
▁san	-8.58884
▁problem	-8.58948
▁cancer	-8.59083
▁job	-8.59084
▁week	-8.59166
▁class	-8.59485
▁play	-8.59611
▁development	-8.59628
▁international	-8.59762
▁credit	-8.59845
▁education	-8.59883
▁natural	-8.60466
▁result	-8.60515
▁team	-8.60552
▁2006	-8.60709
▁types	-8.60736
▁either	-8.60789
▁green	-8.60809
▁death	-8.6083
▁hand	-8.60892
▁try	-8.61183
▁according	-8.61941
▁press	-8.61992
▁file	-8.62027
▁save	-8.62275
▁film	-8.62333
▁property	-8.62466
▁let	-8.62506
▁college	-8.62616
▁yes	-8.6275
▁run	-8.62782
▁99	-8.62889
▁higher	-8.63053
▁specific	-8.63209
▁students	-8.63503
°	-8.63506
▁problems	-8.64001
▁pre	-8.64403
▁along	-8.64754
▁mean	-8.65069
▁month	-8.65395
▁science	-8.66008
▁far	-8.66121
▁color	-8.66533
▁america	-8.66667
▁60	-8.67014
▁five	-8.6729
▁language	-8.67457
▁baby	-8.67562
▁drug	-8.68085
▁feel	-8.68145
▁community	-8.68355
▁similar	-8.68402
▁increase	-8.68492
▁space	-8.68505
▁words	-8.68547
▁present	-8.68665
▁conditions	-8.68793
▁park	-8.68794
▁mar	-8.68855
▁daily	-8.69173
▁location	-8.69625
▁course	-8.69839
▁standard	-8.69957
▁website	-8.6999
▁whether	-8.69997
▁percent	-8.70386
▁together	-8.70512
▁quality	-8.70527
▁model	-8.70659
▁email	-8.70681
▁create	-8.70699
▁hard	-8.70784
▁contributions	-8.71221
▁return	-8.71438
▁enough	-8.71473
▁working	-8.71747
▁land	-8.71978
▁fact	-8.72019
▁complete	-8.7217
▁market	-8.72188
▁web	-8.72334
▁terms	-8.72359
▁taking	-8.72431
▁certain	-8.72469
▁archived	-8.72477
▁normal	-8.72493
▁2000	-8.72593
▁access	-8.7262
10	-8.72905
▁needed	-8.73146
▁follow	-8.73216
▁key	-8.73437
▁table	-8.73677
▁temperature	-8.73693
▁got	-8.73784
▁department	-8.73858
▁president	-8.7387
▁living	-8.74195
▁sometimes	-8.74447
▁35	-8.75162
▁near	-8.75263
▁2005	-8.75323
▁answers	-8.75357
▁others	-8.75361
▁effect	-8.76205
▁levels	-8.76329
▁patient	-8.7635
▁especially	-8.77289
▁security	-8.77327
▁function	-8.77598
▁popular	-8.77652
▁getting	-8.78116
▁minutes	-8.78144
▁makes	-8.78313
▁buy	-8.78317
▁content	-8.78488
▁won	-8.78513
▁among	-8.78715
▁individual	-8.78725
▁loss	-8.78931
▁changes	-8.79034
▁sign	-8.7905
®	-8.79184
▁fire	-8.79187
▁ever	-8.79291
▁media	-8.79297
▁done	-8.79387
▁reviews	-8.79469
▁link	-8.79477
▁blue	-8.79552
▁federal	-8.79569
▁tell	-8.79672
▁close	-8.7992
▁half	-8.80018
▁areas	-8.80314
▁mi	-8.80464
▁seen	-8.80503
▁room	-8.80697
▁hair	-8.80727
▁windows	-8.80774
▁design	-8.80777
▁field	-8.80854
▁insurance	-8.80977
▁pp	-8.81207
▁net	-8.81211
▁sun	-8.81287
▁story	-8.81343
▁bank	-8.81437
▁step	-8.81517
▁45	-8.81588
▁card	-8.81598
▁member	-8.81616
▁map	-8.8162
▁05	-8.81627
▁likely	-8.81774
▁additional	-8.81806
▁visit	-8.82086
▁easy	-8.82375
▁associated	-8.82385
▁04	-8.82588
▁personal	-8.82856
▁production	-8.83419
▁cases	-8.83439
▁earth	-8.83672
▁figure	-8.83681
▁further	-8.83743
▁03	-8.83944
▁action	-8.84101
▁various	-8.84136
▁members	-8.84176
▁actually	-8.84193
▁definition	-8.843
▁note	-8.8445
▁party	-8.8458
▁fat	-8.84618
▁training	-8.84675
▁benefits	-8.84872
▁dictionary	-8.84906
▁california	-8.84918
▁32	-8.8498
▁century	-8.8501
▁looking	-8.85052
▁brain	-8.85134
▁role	-8.85415
▁rights	-8.85476
▁hot	-8.85785
▁weeks	-8.86127
▁project	-8.86438
▁central	-8.86484
▁doesn	-8.86535
▁self	-8.86596
▁dog	-8.86759
▁06	-8.86773
▁gas	-8.86849
▁building	-8.86889
▁lead	-8.87177
▁thing	-8.87412
▁remove	-8.87665
▁application	-8.87719
▁pro	-8.87926
▁past	-8.87926
▁ask	-8.87959
▁force	-8.88092
▁02	-8.88112
▁09	-8.88154
▁considered	-8.88532
▁surface	-8.88539
▁meaning	-8.88583
▁young	-8.8868
▁true	-8.88781
▁computer	-8.88922
▁degree	-8.88945
▁sea	-8.89009
▁art	-8.89011
▁details	-8.89015
▁guide	-8.89044
▁points	-8.89152
▁comments	-8.89268
▁growth	-8.89281
▁shows	-8.89314
▁needs	-8.89368
▁etc	-8.89406
▁08	-8.89587
▁version	-8.8964
▁eye	-8.89703
▁third	-8.8974
▁king	-8.89889
▁road	-8.89922
▁physical	-8.90001
▁someone	-8.9011
▁network	-8.90189
▁photo	-8.90251
▁policy	-8.90469
▁river	-8.9055
▁plant	-8.90645
▁street	-8.90669
▁75	-8.90676
▁born	-8.90738
▁weather	-8.90781
▁became	-8.9086
ter	-8.90965
▁500	-8.91182
▁face	-8.91346
▁financial	-8.91463
▁mg	-8.91743
▁interest	-8.91889
▁isbn	-8.91912
▁difference	-8.91959
▁box	-8.92258
▁ma	-8.9228
▁east	-8.92413
▁bad	-8.9242
▁systems	-8.92462
▁generally	-8.92579
▁studies	-8.92588
▁07	-8.92979
▁protein	-8.92987
▁heat	-8.92998
▁cut	-8.93051
▁address	-8.93054
▁move	-8.93107
▁image	-8.93255
▁condition	-8.93372
▁stop	-8.93704
▁whole	-8.93739
▁god	-8.93768
▁instead	-8.9378
▁speed	-8.93826
▁store	-8.94056
▁almost	-8.94175
▁user	-8.94284
▁cannot	-8.94316
▁owner	-8.94472
▁longer	-8.94684
▁rock	-8.94755
▁works	-8.94788
▁base	-8.94801
▁90	-8.95089
▁located	-8.95142
▁muscle	-8.95257
▁material	-8.95427
▁drive	-8.95443
▁record	-8.95489
▁33	-8.95531
▁six	-8.95568
▁2003	-8.95782
▁turn	-8.95829
▁80	-8.95868
▁performance	-8.95888
▁clear	-8.95889
▁addition	-8.96008
▁medicine	-8.96047
▁simple	-8.96152
▁front	-8.96255
▁offer	-8.96497
▁taken	-8.96851
▁feet	-8.96879
▁position	-8.96895
▁unit	-8.97275
▁helpful	-8.97278
▁2004	-8.97552
▁rather	-8.97678
▁middle	-8.97931
▁upon	-8.97995
▁acid	-8.98176
▁diet	-8.98213
▁professional	-8.9826
▁36	-8.98426
▁inc	-8.98435
▁believe	-8.98571
▁already	-8.98965
▁style	-8.99056
▁french	-8.99069
▁across	-8.99085
▁town	-8.99504
▁34	-8.99646
▁species	-8.99875
▁legal	-8.999
by	-9.00106
▁late	-9.00296
▁son	-9.00615
▁yet	-9.00622
▁came	-9.00924
▁washington	-9.00968
▁options	-9.01052
▁future	-9.01164
▁board	-9.01204
▁hour	-9.01229
▁started	-9.01315
▁pdf	-9.01421
▁private	-9.01462
▁comes	-9.01521
▁eat	-9.01562
▁took	-9.01727
be	-9.01818
▁leave	-9.01904
▁release	-9.02018
▁anti	-9.02192
▁bar	-9.02355
▁method	-9.02358
▁costs	-9.02522
▁views	-9.02598
12	-9.02922
▁published	-9.02998
▁references	-9.03302
▁infection	-9.03448
▁cold	-9.0357
▁british	-9.03678
▁provided	-9.04142
▁bit	-9.04236
▁square	-9.04255
est	-9.04261
▁increased	-9.04308
▁kind	-9.0431
▁practice	-9.04472
▁created	-9.04598
▁text	-9.04694
▁final	-9.04713
▁island	-9.04727
▁technology	-9.04805
▁travel	-9.04816
▁features	-9.04933
▁inside	-9.04994
▁©	-9.05043
▁outside	-9.05224
▁37	-9.05341
▁google	-9.05446
▁70	-9.0586
▁effective	-9.06129
▁thought	-9.06156
▁added	-9.06258
▁surgery	-9.06302
▁resources	-9.06302
▁probably	-9.06382
▁companies	-9.06463
▁activity	-9.06521
▁ex	-9.06678
▁ground	-9.06739
▁stars	-9.06836
▁episode	-9.07035
▁km	-9.0705
▁includes	-9.07132
▁active	-9.07221
▁military	-9.07272
18	-9.073
▁apply	-9.07513
▁49	-9.07558
▁reason	-9.07593
▁watch	-9.07707
11	-9.07882
▁damage	-9.08018
▁response	-9.08025
▁strong	-9.08122
▁receive	-9.08152
▁pa	-9.08157
▁200	-9.08196
▁caused	-9.08307
▁james	-9.08373
▁student	-9.08399
▁sales	-9.08595
▁le	-9.08718
▁safety	-9.08816
▁evidence	-9.08858
▁issues	-9.08882
▁wall	-9.08893
▁brown	-9.08991
▁length	-9.09037
▁doing	-9.09095
▁bill	-9.09251
▁48	-9.09259
▁david	-9.09297
▁issue	-9.09314
▁primary	-9.09431
▁mother	-9.09483
ness	-9.0954
▁didn	-9.09582
▁39	-9.0964
▁parts	-9.09663
▁takes	-9.09702
▁asked	-9.09825
▁lake	-9.09873
▁reading	-9.09971
▁society	-9.10192
▁currently	-9.10317
▁choose	-9.10405
▁lost	-9.10405
▁cover	-9.10493
▁modern	-9.10563
▁links	-9.10656
▁written	-9.10782
▁texas	-9.10992
▁association	-9.11135
▁dry	-9.1121
▁uk	-9.11289
▁apr	-9.11296
▁character	-9.11489
▁38	-9.1152
▁paid	-9.11584
▁title	-9.11604
▁2002	-9.11612
▁multiple	-9.11702
▁55	-9.11708
▁sugar	-9.11731
▁mo	-9.11806
▁birth	-9.11836
▁allow	-9.11888
▁summer	-9.11899
▁facebook	-9.12097
▁industry	-9.12173
▁ha	-9.12313
▁avoid	-9.12334
▁potential	-9.12346
▁reported	-9.12892
▁clinical	-9.1293
▁sound	-9.12971
▁programs	-9.12989
▁song	-9.13052
▁received	-9.13103
pm	-9.13108
▁mind	-9.13177
▁stay	-9.13296
▁sub	-9.13373
▁di	-9.13379
▁via	-9.13433
▁subject	-9.13507
▁44	-9.13519
▁names	-9.13565
▁fall	-9.13585
▁fish	-9.13738
▁went	-9.13878
▁movie	-9.1405
▁author	-9.14107
▁limited	-9.14125
▁anything	-9.14237
▁continue	-9.14357
▁event	-9.14498
▁provides	-9.14508
▁analysis	-9.14598
▁father	-9.14775
▁super	-9.14891
▁foods	-9.14902
▁typically	-9.15292
▁therapy	-9.15292
▁require	-9.15296
▁posted	-9.15396
▁structure	-9.15435
▁select	-9.15447
▁gold	-9.15477
▁prevent	-9.15578
▁95	-9.15588
▁included	-9.15688
▁idea	-9.15721
▁factors	-9.1594
▁healthy	-9.15956
▁answered	-9.16055
▁42	-9.16104
▁65	-9.16205
▁records	-9.16311
▁customer	-9.16317
▁rest	-9.16369
▁hospital	-9.16371
▁mark	-9.16553
▁software	-9.1662
▁countries	-9.16631
▁plants	-9.16971
▁occur	-9.17047
▁thus	-9.1717
▁canada	-9.17393
▁direct	-9.17404
▁recent	-9.17618
▁nature	-9.17766
▁safe	-9.17807
▁particular	-9.17951
▁simply	-9.18067
▁plus	-9.18089
▁hide	-9.18226
ling	-9.18246
▁external	-9.18249
▁woman	-9.18413
▁matter	-9.18496
and	-9.18513
▁numbers	-9.1856
▁regular	-9.18729
▁internet	-9.18736
▁necessary	-9.18764
▁forms	-9.18833
▁events	-9.18877
▁official	-9.18883
▁org	-9.18939
▁former	-9.19015
▁female	-9.19255
▁41	-9.19418
▁info	-9.19436
▁journal	-9.195
▁career	-9.19658
▁basic	-9.19668
▁region	-9.19995
▁reduce	-9.20002
▁status	-9.20025
▁political	-9.20028
▁built	-9.20039
▁sex	-9.20094
▁paper	-9.20245
▁understand	-9.20367
▁culture	-9.20406
▁stock	-9.20514
▁drugs	-9.20696
▁london	-9.20793
▁requirements	-9.2082
▁throughout	-9.20844
▁groups	-9.20997
▁cross	-9.21176
▁thanks	-9.21202
▁talk	-9.21454
▁began	-9.21493
▁told	-9.21545
less	-9.21545
▁produce	-9.21633
▁district	-9.21694
▁improve	-9.21739
▁uses	-9.21997
▁articles	-9.22044
▁therefore	-9.22089
▁enter	-9.2214
ity	-9.2216
▁beach	-9.22306
▁doi	-9.2259
▁fast	-9.22591
▁sports	-9.2267
▁organization	-9.22873
▁43	-9.22912
▁send	-9.22941
▁mail	-9.2297
▁books	-9.23026
▁animal	-9.23073
▁machine	-9.23368
▁variety	-9.23505
▁2001	-9.23655
▁match	-9.2367
▁wide	-9.23691
▁player	-9.23721
▁join	-9.23728
ley	-9.23794
▁ways	-9.23865
▁significant	-9.23912
▁staff	-9.23949
▁paul	-9.23972
▁administration	-9.24079
▁shown	-9.24322
▁salary	-9.24492
▁shall	-9.24532
▁extra	-9.2455
▁michael	-9.24637
▁sense	-9.2477
▁everything	-9.24814
ch	-9.24824
▁foot	-9.24928
ation	-9.25059
▁union	-9.25096
▁ability	-9.25132
▁annual	-9.25135
▁vehicle	-9.25156
▁jan	-9.25237
▁sources	-9.25386
▁trade	-9.25397
▁deal	-9.25558
▁consider	-9.25659
▁led	-9.2567
▁iron	-9.25671
▁greater	-9.25716
ville	-9.25924
▁worth	-9.26092
▁sleep	-9.26128
▁mass	-9.26152
▁pop	-9.26195
▁male	-9.26295
▁items	-9.26387
▁games	-9.26426
land	-9.26489
▁rates	-9.26505
▁positive	-9.26553
▁activities	-9.26616
▁47	-9.26674
▁hold	-9.26938
▁46	-9.27009
▁friends	-9.27098
▁double	-9.2712
▁images	-9.27158
▁radio	-9.27235
▁directly	-9.2726
▁ar	-9.27279
▁device	-9.27292
▁posts	-9.27421
▁police	-9.27822
▁stage	-9.27925
▁named	-9.28058
▁learning	-9.28082
▁itself	-9.28149
▁released	-9.28211
ur	-9.28241
▁running	-9.28291
▁largest	-9.28391
▁airport	-9.28428
▁flow	-9.28468
▁°	-9.28511
▁nothing	-9.28517
▁contains	-9.28523
▁tree	-9.28747
▁wood	-9.28761
▁severe	-9.28878
▁environment	-9.28908
▁church	-9.28933
▁print	-9.28953
▁option	-9.2896
▁determine	-9.2903
▁produced	-9.29044
▁syndrome	-9.29088
▁previous	-9.29173
▁soon	-9.29175
▁held	-9.29391
▁friend	-9.29444
▁animals	-9.29459
▁behind	-9.29575
▁vitamin	-9.29593
▁54	-9.29653
▁offers	-9.29684
▁dec	-9.29708
▁cup	-9.29765
▁charge	-9.29854
▁cat	-9.29891
▁goes	-9.30053
▁attack	-9.30134
▁rating	-9.30156
ted	-9.30256
▁movement	-9.30259
▁spring	-9.30275
▁relationship	-9.30345
▁mac	-9.30554
▁employees	-9.30627
▁hi	-9.30698
▁difficult	-9.30721
▁hit	-9.30764
▁los	-9.31
▁individuals	-9.31007
▁52	-9.31212
▁designed	-9.31228
▁volume	-9.31238
▁pregnancy	-9.31238
▁59	-9.31256
▁german	-9.3132
▁sale	-9.31338
▁station	-9.31491
per	-9.31602
▁chemical	-9.31687
ate	-9.31715
▁writing	-9.31755
▁dark	-9.3182
▁hope	-9.31867
▁units	-9.3189
▁protection	-9.32099
▁quick	-9.32132
▁entire	-9.32197
▁florida	-9.3227
▁hotel	-9.32318
▁message	-9.32364
▁bone	-9.32375
▁dose	-9.32441
▁break	-9.32484
▁useful	-9.32489
▁origin	-9.32493
▁solution	-9.32617
▁pass	-9.32749
▁twitter	-9.32758
▁army	-9.32881
▁rule	-9.32917
▁wife	-9.32949
▁rules	-9.33032
▁mid	-9.33093
▁brand	-9.33202
▁robert	-9.33237
▁william	-9.33262
▁couple	-9.33413
▁developed	-9.33517
depending	-9.33561
▁ice	-9.33672
▁economic	-9.33746
▁updated	-9.33789
▁dead	-9.33794
▁fun	-9.33859
▁band	-9.34188
▁milk	-9.34197
▁quite	-9.34218
▁fine	-9.34243
▁alcohol	-9.34252
▁larger	-9.34256
▁write	-9.3427
▁purchase	-9.34278
▁examples	-9.34413
▁recommended	-9.34483
▁build	-9.34494
▁56	-9.34533
▁parents	-9.34566
▁george	-9.3458
▁clean	-9.34656
▁exercise	-9.348
▁easily	-9.34806
▁reference	-9.3501
▁tests	-9.35026
▁western	-9.35055
▁tissue	-9.35089
▁photos	-9.35171
▁grow	-9.35274
▁deep	-9.35379
▁china	-9.35502
▁kids	-9.35642
▁edition	-9.35821
▁license	-9.36021
▁choice	-9.36119
▁established	-9.36144
▁club	-9.36341
▁schools	-9.36352
▁ga	-9.36475
▁commercial	-9.36514
▁wind	-9.36581
▁distance	-9.36679
▁trying	-9.37016
▁liver	-9.37027
▁bring	-9.37043
▁knowledge	-9.37058
▁app	-9.37067
▁engine	-9.37099
▁meet	-9.37147
▁census	-9.37268
▁remember	-9.37484
▁equipment	-9.37648
19	-9.3769
▁husband	-9.37736
▁died	-9.37763
▁materials	-9.37799
▁develop	-9.37927
▁india	-9.37948
▁older	-9.38018
▁win	-9.38136
▁bottom	-9.38175
▁51	-9.38177
▁wi	-9.38221
▁master	-9.38284
▁prior	-9.38361
▁quickly	-9.38415
▁frequently	-9.38789
▁metal	-9.38833
▁involved	-9.38896
▁upper	-9.39139
▁index	-9.39206
▁theory	-9.39288
▁civil	-9.39364
▁sold	-9.39505
▁payment	-9.39546
▁screen	-9.39593
▁director	-9.3968
▁users	-9.39698
▁53	-9.39746
▁anyone	-9.39801
▁round	-9.39918
▁joint	-9.40248
▁manager	-9.40364
▁global	-9.40471
15	-9.4087
▁construction	-9.40973
▁testing	-9.41057
▁salt	-9.41094
▁growing	-9.41161
▁looks	-9.41218
▁tips	-9.413
▁foreign	-9.41303
▁everyone	-9.41345
▁serious	-9.41351
▁benefit	-9.41391
▁dna	-9.41418
▁cities	-9.41514
▁bay	-9.41548
▁64	-9.41584
▁starting	-9.41734
▁fee	-9.41903
▁european	-9.4214
▁battle	-9.42236
▁appear	-9.42255
▁bi	-9.42349
▁purpose	-9.4245
▁claim	-9.4266
▁yourself	-9.42753
▁wa	-9.42753
▁europe	-9.42808
▁alone	-9.42822
▁adult	-9.42898
▁complex	-9.4291
▁values	-9.42917
▁winter	-9.42968
▁overall	-9.42972
▁usa	-9.43021
13	-9.43065
▁voice	-9.43088
▁signs	-9.43092
▁contract	-9.43113
▁allows	-9.43172
▁daughter	-9.43239
▁letter	-9.4324
▁object	-9.43309
line	-9.43484
▁thank	-9.43713
▁helps	-9.43724
ner	-9.4375
▁download	-9.43812
▁else	-9.43903
▁score	-9.43939
▁300	-9.43963
▁ensure	-9.4397
▁spanish	-9.4397
▁display	-9.44028
▁contain	-9.44174
▁race	-9.44177
▁leaves	-9.44209
▁eyes	-9.44227
▁1999	-9.44473
▁cash	-9.44505
▁capital	-9.44543
▁beginning	-9.44571
▁shipping	-9.446
▁girl	-9.44631
▁traditional	-9.44679
17	-9.44735
▁du	-9.4488
▁html	-9.44907
▁chance	-9.44924
▁57	-9.44961
▁themselves	-9.45046
▁southern	-9.4506
▁television	-9.45079
▁categories	-9.45118
▁steps	-9.45159
▁impact	-9.45205
▁employee	-9.45293
▁prices	-9.45412
▁mobile	-9.45443
▁treat	-9.45566
▁apple	-9.45676
▁balance	-9.45687
▁commonly	-9.45736
▁defined	-9.45928
▁eating	-9.45962
▁begin	-9.46367
▁notice	-9.46607
▁track	-9.46714
▁channel	-9.46731
▁seems	-9.46759
up	-9.46792
▁document	-9.46809
▁compared	-9.46906
▁perfect	-9.47039
▁highest	-9.47067
▁angeles	-9.47316
men	-9.47333
▁affect	-9.47357
14	-9.47446
▁1998	-9.47585
▁estate	-9.47678
▁ten	-9.47709
▁statement	-9.47738
▁med	-9.47954
▁trump	-9.48027
▁negative	-9.4805
▁decision	-9.4808
▁digital	-9.4816
ment	-9.48327
▁hill	-9.48429
ler	-9.48437
▁fl	-9.48483
▁ch	-9.48581
▁cast	-9.48588
▁places	-9.48629
▁978	-9.48708
▁collection	-9.48728
▁soil	-9.48782
▁approximately	-9.49051
▁yellow	-9.49096
▁lines	-9.49109
▁correct	-9.49119
▁800	-9.49126
▁transfer	-9.49145
▁height	-9.49155
▁basis	-9.49196
▁occurs	-9.49206
▁va	-9.49263
▁behavior	-9.49267
▁request	-9.49274
▁calories	-9.49412
ent	-9.49446
▁tools	-9.49539
▁auto	-9.49582
▁stress	-9.49664
▁division	-9.49787
▁hall	-9.49812
▁vote	-9.49826
▁1997	-9.49845
▁seven	-9.49967
▁maybe	-9.50003
▁picture	-9.50301
▁fresh	-9.50304
▁85	-9.50311
▁motor	-9.50336
▁minimum	-9.50358
▁heavy	-9.50372
▁labor	-9.50383
▁fit	-9.50436
▁appropriate	-9.50492
▁pretty	-9.50509
▁morning	-9.50518
▁58	-9.5061
▁supply	-9.50612
▁library	-9.50663
▁diagnosis	-9.50834
▁1990	-9.50884
▁requires	-9.50944
▁internal	-9.50968
▁native	-9.5104
▁ready	-9.51101
▁finally	-9.5113
▁france	-9.51168
▁workers	-9.51239
▁himself	-9.51272
▁australia	-9.51321
▁injury	-9.51338
▁mouth	-9.51379
▁england	-9.51429
▁stone	-9.51553
▁indian	-9.51577
▁multi	-9.51721
▁essential	-9.51728
▁meat	-9.51811
▁chicago	-9.51812
▁plans	-9.51864
▁exchange	-9.51868
▁hands	-9.51908
▁removed	-9.52207
▁glass	-9.5226
▁completely	-9.52279
▁moving	-9.52365
▁floor	-9.52369
▁scale	-9.52517
▁poor	-9.52555
▁files	-9.52815
▁methods	-9.529
one	-9.52995
▁copy	-9.53232
me	-9.53251
▁item	-9.53302
▁coming	-9.53324
▁highly	-9.53339
▁listed	-9.53371
▁advice	-9.53384
▁diseases	-9.5344
▁zone	-9.53539
▁unless	-9.53616
▁procedure	-9.53645
▁african	-9.53675
▁tea	-9.53715
▁description	-9.53717
▁fluid	-9.53721
▁failure	-9.53776
han	-9.53779
▁played	-9.53879
▁diabetes	-9.53887
▁smaller	-9.53903
▁server	-9.5397
▁port	-9.53972
▁wikipedia	-9.53983
▁fuel	-9.5404
▁loan	-9.54123
▁properties	-9.54162
▁sent	-9.54274
▁separate	-9.54288
▁tend	-9.54323
▁rare	-9.54398
▁particularly	-9.54461
▁treated	-9.54526
▁ball	-9.54641
▁married	-9.54774
▁factor	-9.54845
▁cm	-9.54899
he	-9.54924
▁maximum	-9.54998
▁disorder	-9.5502
▁trip	-9.55043
▁inches	-9.55066
▁bacteria	-9.55071
▁allowed	-9.55127
▁award	-9.55216
▁drink	-9.55309
20	-9.55369
▁grade	-9.55441
▁skills	-9.55463
▁dogs	-9.55501
▁medication	-9.55508
▁album	-9.55552
▁described	-9.5564
▁copyright	-9.55648
▁gives	-9.5565
▁northern	-9.5565
▁flag	-9.55713
▁door	-9.55745
▁nerve	-9.55879
▁recently	-9.55947
▁wrong	-9.56074
▁carbon	-9.56139
▁nearly	-9.5617
▁saw	-9.56223
▁unique	-9.5624
▁equal	-9.56386
▁chronic	-9.5639
▁oct	-9.56476
16	-9.56496
▁cycle	-9.56655
▁agent	-9.56685
▁focus	-9.568
▁notes	-9.56808
▁reach	-9.56888
▁tube	-9.56943
▁parent	-9.5713
▁chapter	-9.57177
▁maintain	-9.57265
▁leading	-9.57289
▁command	-9.57362
▁update	-9.5738
▁approach	-9.57396
▁independent	-9.57439
▁silver	-9.57464
▁success	-9.57583
▁profile	-9.57697
wood	-9.57836
▁wanted	-9.57858
▁pages	-9.57917
▁except	-9.58023
▁residents	-9.58115
▁stand	-9.58216
▁chicken	-9.58231
▁oxygen	-9.58255
▁gov	-9.58295
▁families	-9.58322
con	-9.58369
▁encyclopedia	-9.58373
▁trust	-9.58382
▁elements	-9.58397
▁worked	-9.58478
▁liquid	-9.58492
▁pc	-9.58506
▁pmid	-9.58628
▁gave	-9.58786
▁contents	-9.58792
▁protect	-9.58799
▁piece	-9.58821
we	-9.58865
▁facts	-9.58873
▁pan	-9.58884
▁covered	-9.58939
▁steel	-9.58952
▁historical	-9.58997
▁attention	-9.59014
▁mexico	-9.59156
▁tool	-9.59198
▁customers	-9.59369
▁measure	-9.59458
▁reaction	-9.59498
▁degrees	-9.5955
▁virginia	-9.59575
▁strength	-9.59662
▁league	-9.59761
▁block	-9.59852
▁thomas	-9.59861
▁situation	-9.59869
▁wild	-9.59902
▁shape	-9.59977
▁valley	-9.6008
▁min	-9.60146
▁core	-9.60157
▁fruit	-9.60161
▁feb	-9.60186
▁appears	-9.60228
▁kingdom	-9.60266
▁grand	-9.60427
ill	-9.6044
▁150	-9.60493
▁reports	-9.60693
▁feature	-9.60701
▁characters	-9.60742
▁category	-9.60762
▁driver	-9.60846
era	-9.60852
▁rain	-9.60869
ized	-9.60936
▁famous	-9.60997
▁dis	-9.61029
▁agency	-9.61049
▁limit	-9.61055
den	-9.6115
▁jobs	-9.61187
▁latest	-9.61343
▁72	-9.61479
▁institute	-9.61524
▁aid	-9.61616
▁cool	-9.61738
▁changed	-9.61746
▁responsible	-9.61788
▁chief	-9.61831
▁storage	-9.61838
▁immediately	-9.61845
▁laws	-9.61967
▁whose	-9.62018
▁memory	-9.62079
▁sweet	-9.62297
▁fees	-9.62338
▁operations	-9.62362
▁recommend	-9.62391
▁applied	-9.62404
▁walk	-9.62422
▁branch	-9.62437
▁taxes	-9.62462
▁drop	-9.62475
▁despite	-9.62513
age	-9.62523
▁gets	-9.62662
▁percentage	-9.62692
▁latin	-9.62694
▁fair	-9.62749
▁flat	-9.62885
▁log	-9.63008
▁smith	-9.63021
▁wear	-9.6316
▁understanding	-9.63273
▁housing	-9.63448
▁royal	-9.63528
▁chinese	-9.63621
▁congress	-9.6364
▁registered	-9.6367
▁enjoy	-9.63688
▁nov	-9.6373
▁van	-9.6374
▁mountain	-9.63853
▁claims	-9.63908
▁refer	-9.63939
▁pregnant	-9.63944
▁driving	-9.63964
▁slow	-9.63967
▁soft	-9.63977
▁1996	-9.64066
▁ancient	-9.64113
▁mental	-9.64145
▁66	-9.64157
▁chart	-9.64291
25	-9.64406
▁nursing	-9.64507
▁spread	-9.64617
▁database	-9.6466
▁forces	-9.64665
▁advertisement	-9.64687
▁performed	-9.64703
▁wrote	-9.64753
▁pin	-9.6485
▁tour	-9.64878
▁giving	-9.65029
▁arm	-9.65107
▁trial	-9.6512
▁inter	-9.65161
▁applications	-9.65175
▁happy	-9.65247
▁beautiful	-9.65302
▁schedule	-9.655
▁microsoft	-9.65563
▁die	-9.65579
▁pet	-9.65592
▁stomach	-9.65619
▁compare	-9.65621
▁greek	-9.65652
▁climate	-9.65673
▁rich	-9.6571
▁planning	-9.65722
▁awards	-9.65812
▁forward	-9.65821
▁feeling	-9.6588
▁billion	-9.65971
back	-9.66069
▁lee	-9.66091
▁https	-9.66139
▁ideas	-9.66171
▁mostly	-9.66298
▁solid	-9.66428
▁africa	-9.66446
ance	-9.66488
▁sexual	-9.66507
▁actual	-9.66574
▁boy	-9.66726
▁error	-9.66815
▁rose	-9.66921
▁vision	-9.67017
▁reasons	-9.67051
▁lack	-9.67061
▁split	-9.67119
▁median	-9.6712
▁followed	-9.67132
▁setting	-9.67133
▁400	-9.67148
▁initial	-9.6717
mer	-9.67247
▁marriage	-9.67289
▁window	-9.67301
▁charles	-9.67407
▁appearance	-9.67416
▁leg	-9.67552
▁cap	-9.67679
▁snow	-9.6775
▁rise	-9.67827
▁electric	-9.67888
▁disorders	-9.67892
ive	-9.67936
▁moon	-9.67949
▁flight	-9.67956
▁warm	-9.67965
▁cook	-9.67979
▁74	-9.67981
▁62	-9.68065
▁98	-9.68123
▁becomes	-9.68149
▁shop	-9.68282
▁coast	-9.68294
▁expect	-9.68296
▁medications	-9.68346
▁adults	-9.68346
▁causing	-9.68364
▁met	-9.6837
▁67	-9.68458
▁ph	-9.68463
▁gain	-9.68561
▁advanced	-9.6868
▁63	-9.68686
▁council	-9.68716
▁eventually	-9.68755
▁richard	-9.68908
▁po	-9.68939
▁authority	-9.68974
▁1995	-9.68986
lin	-9.68998
▁con	-9.69152
▁distribution	-9.69206
▁statistics	-9.69227
▁combination	-9.69233
▁lose	-9.69259
▁muscles	-9.69272
▁lives	-9.69295
▁garden	-9.69303
▁host	-9.69429
▁serve	-9.69478
▁count	-9.69532
▁repair	-9.69681
▁expected	-9.69709
▁officer	-9.6973
▁wedding	-9.69733
▁alternative	-9.69744
▁micro	-9.69828
▁agreement	-9.69967
▁sell	-9.69976
▁bridge	-9.7001
▁emergency	-9.7004
▁tried	-9.70176
▁depends	-9.70386
▁serving	-9.70461
▁perform	-9.70466
▁oral	-9.70472
▁ba	-9.70652
▁germany	-9.7066
▁budget	-9.70706
▁plastic	-9.70768
▁ring	-9.70808
▁devices	-9.70848
▁provider	-9.70858
▁beyond	-9.70863
▁sample	-9.70909
▁ocean	-9.70949
▁wait	-9.71123
▁matches	-9.71125
▁carolina	-9.71153
▁coffee	-9.71181
▁inch	-9.712
▁standards	-9.71291
▁amazon	-9.713
▁operation	-9.71313
▁li	-9.71331
▁aug	-9.71377
▁76	-9.7143
▁proper	-9.71458
▁killed	-9.71464
▁japanese	-9.715
▁bo	-9.71534
▁heard	-9.71591
▁reveals	-9.71636
▁locations	-9.71647
▁fan	-9.71702
▁entry	-9.71727
▁meeting	-9.71746
▁69	-9.71751
▁68	-9.71817
▁1994	-9.71894
▁moved	-9.71914
▁target	-9.71975
▁citation	-9.72014
▁neck	-9.72074
▁reduced	-9.72107
▁root	-9.72122
▁motion	-9.72133
▁actor	-9.72221
ard	-9.72407
▁dress	-9.72473
▁opening	-9.72509
ization	-9.72516
ham	-9.72591
▁football	-9.72722
▁formed	-9.72755
▁perhaps	-9.72761
▁shot	-9.72805
▁martin	-9.7288
▁earlier	-9.72952
▁operating	-9.72978
▁pick	-9.72985
▁served	-9.73073
▁eight	-9.73184
▁pool	-9.7319
▁sites	-9.73198
▁fight	-9.73217
▁recipe	-9.73254
ize	-9.73265
24	-9.73277
21	-9.73338
▁peter	-9.73344
▁agree	-9.73351
▁coverage	-9.73372
▁79	-9.73419
▁nor	-9.73425
▁episodes	-9.73434
▁decade	-9.73529
▁players	-9.73839
▁cloud	-9.74066
▁seem	-9.7412
▁placed	-9.74136
▁nice	-9.74207
▁closed	-9.74233
▁critical	-9.74265
▁crime	-9.74282
▁phase	-9.74363
▁roman	-9.74368
▁defense	-9.74431
▁exposure	-9.74481
field	-9.7456
▁abuse	-9.74567
▁hear	-9.74728
▁ray	-9.74763
▁battery	-9.74764
▁justice	-9.74803
▁tx	-9.74967
▁bio	-9.74985
out	-9.75021
▁hearing	-9.7513
▁direction	-9.7516
▁depression	-9.75245
▁61	-9.75288
▁carry	-9.75348
▁originally	-9.75407
▁corporation	-9.75489
▁button	-9.75516
▁tri	-9.75564
▁technical	-9.75605
ex	-9.75609
▁blog	-9.7561
▁nation	-9.75614
▁medium	-9.7569
▁gene	-9.75696
▁lu	-9.75884
▁vary	-9.75886
tic	-9.75969
▁estimated	-9.76109
▁background	-9.76178
▁fully	-9.7627
▁kidney	-9.76277
▁edge	-9.76384
▁functions	-9.76425
ger	-9.76511
▁favorite	-9.76569
▁orange	-9.76608
▁foundation	-9.76635
▁playing	-9.76668
▁saying	-9.7667
▁employment	-9.76679
▁eastern	-9.76702
▁eggs	-9.76721
▁77	-9.76808
▁layer	-9.76843
▁reserved	-9.76854
▁nutrition	-9.7692
▁environmental	-9.77032
▁egg	-9.77035
▁japan	-9.77079
▁increases	-9.771
▁otherwise	-9.77106
▁executive	-9.77162
▁wine	-9.77234
▁zip	-9.77298
▁breast	-9.77327
▁connection	-9.77399
▁doctors	-9.77625
▁max	-9.77646
▁horse	-9.77665
▁collins	-9.77686
▁mary	-9.77706
▁sep	-9.77734
▁ear	-9.77798
▁successful	-9.77878
▁brought	-9.78005
▁taste	-9.78174
▁goal	-9.78199
▁straight	-9.78292
▁survey	-9.78293
▁mix	-9.7831
▁adding	-9.78333
▁economy	-9.78341
▁jersey	-9.78359
▁gun	-9.78553
▁kill	-9.78724
▁influence	-9.78857
▁waste	-9.78979
▁homes	-9.79014
referred	-9.7906
▁format	-9.79067
▁route	-9.7914
▁commission	-9.79164
▁affected	-9.79258
▁84	-9.79329
▁1980	-9.79351
▁89	-9.79358
▁turned	-9.79379
▁jack	-9.79394
▁expensive	-9.79447
▁criminal	-9.79482
▁fiber	-9.79623
▁marketing	-9.79768
▁passed	-9.79768
▁remain	-9.80044
▁minute	-9.80053
▁interesting	-9.80196
▁spend	-9.80247
▁ship	-9.8026
▁queen	-9.80329
ten	-9.8037
of	-9.8037
▁chest	-9.80385
ium	-9.80517
▁teeth	-9.80616
ave	-9.80642
▁cards	-9.80668
▁approved	-9.8075
▁thinking	-9.80754
▁sort	-9.80767
▁ke	-9.80771
▁pictures	-9.80799
▁jun	-9.8082
▁vol	-9.8085
▁majority	-9.80863
▁debt	-9.80929
▁iii	-9.81034
▁bus	-9.81069
▁models	-9.81093
▁ratio	-9.81102
▁partner	-9.81287
▁scientific	-9.81493
▁museum	-9.81513
▁stories	-9.81575
30	-9.81796
▁exactly	-9.82102
▁78	-9.82123
▁extremely	-9.82167
▁actress	-9.82277
▁73	-9.823
▁monthly	-9.82334
▁investment	-9.8238
▁happens	-9.82413
▁register	-9.82442
▁communication	-9.8246
▁chris	-9.82491
▁providing	-9.82502
▁toward	-9.82572
▁maintenance	-9.82619
▁engineering	-9.82651
▁urine	-9.82653
▁slightly	-9.82663
▁1991	-9.82761
22	-9.82761
▁sam	-9.82803
▁attorney	-9.82899
▁client	-9.82928
▁johnson	-9.82974
▁secret	-9.83063
▁stores	-9.83143
▁presence	-9.83232
▁writer	-9.83253
▁italian	-9.83257
▁counter	-9.8329
▁powerful	-9.83324
▁delivery	-9.83344
▁browser	-9.8335
▁fans	-9.83372
▁filed	-9.83373
▁happen	-9.83462
▁colors	-9.83467
▁christian	-9.83474
▁documents	-9.83737
▁traffic	-9.83863
▁fill	-9.83884
▁infections	-9.83892
▁ka	-9.83895
▁mode	-9.83955
▁suggest	-9.83974
view	-9.83999
▁cheese	-9.84034
▁solar	-9.84042
▁minor	-9.84238
▁capacity	-9.84262
▁tip	-9.84399
23	-9.8447
▁interview	-9.84533
▁1993	-9.84583
▁lo	-9.84838
▁noun	-9.84943
▁replace	-9.84985
▁trees	-9.85001
▁scott	-9.85044
▁switch	-9.85104
▁dream	-9.85118
▁pub	-9.85151
▁lord	-9.85152
▁existing	-9.85178
▁train	-9.85182
▁spot	-9.85242
ve	-9.8525
ally	-9.85253
▁96	-9.85268
▁vi	-9.85291
▁cream	-9.85299
▁cars	-9.85315
▁recognize	-9.85524
29	-9.85549
▁jr	-9.85587
▁97	-9.85645
more	-9.85699
▁feed	-9.85801
▁touch	-9.85845
▁71	-9.85881
▁continued	-9.8602
▁bureau	-9.86068
▁consumer	-9.86088
▁increasing	-9.86146
▁remains	-9.86175
▁paint	-9.8619
▁path	-9.86271
▁controlled	-9.86368
▁load	-9.86417
▁sunday	-9.86543
▁demand	-9.86627
▁committee	-9.86651
▁completed	-9.86675
▁calcium	-9.86908
▁visual	-9.86925
ary	-9.86991
▁huge	-9.87046
▁employer	-9.87135
▁acute	-9.87138
▁regarding	-9.87245
▁normally	-9.87297
▁chain	-9.87298
▁ingredients	-9.87314
▁250	-9.87319
▁string	-9.8734
▁empire	-9.87358
▁brother	-9.87367
▁plate	-9.87406
▁campaign	-9.87427
▁mentioned	-9.87437
▁organic	-9.87457
▁element	-9.87502
▁typical	-9.87601
▁excellent	-9.87623
▁moment	-9.8767
▁household	-9.87785
▁containing	-9.87842
▁1992	-9.87986
my	-9.88063
▁none	-9.88081
▁disney	-9.88317
▁generation	-9.88339
▁towards	-9.88378
▁humans	-9.88387
▁village	-9.88415
▁easier	-9.88575
▁fixed	-9.88606
▁senior	-9.88626
▁showing	-9.8865
▁healthcare	-9.88758
red	-9.88821
▁identify	-9.88848
▁formula	-9.88909
▁relatively	-9.8897
▁processes	-9.89024
▁resistance	-9.89037
▁tech	-9.89064
▁recorded	-9.8913
▁kg	-9.89141
▁fear	-9.89189
que	-9.89207
▁81	-9.89255
▁dan	-9.89302
▁output	-9.89362
▁trans	-9.8938
▁religious	-9.89385
▁procedures	-9.89389
▁bond	-9.89402
▁spent	-9.89421
▁arts	-9.89423
▁row	-9.89444
▁120	-9.89463
▁overview	-9.89574
▁offered	-9.89626
▁election	-9.89643
▁introduced	-9.89697
▁speech	-9.89768
▁pacific	-9.89815
▁jones	-9.89908
for	-9.89945
▁classic	-9.89961
▁1970	-9.90031
▁replacement	-9.90051
▁88	-9.90111
▁bag	-9.90126
▁virus	-9.90167
27	-9.90212
▁selected	-9.90217
▁sodium	-9.90261
▁cable	-9.90297
▁recovery	-9.9031
▁arms	-9.9047
▁grant	-9.90507
▁transportation	-9.90551
▁genetic	-9.90568
▁prince	-9.90588
▁fever	-9.90592
▁ge	-9.90605
▁83	-9.90622
▁singer	-9.90622
▁detailed	-9.90625
▁jul	-9.90642
▁mission	-9.9065
▁seat	-9.90655
▁leader	-9.90679
▁purposes	-9.90875
▁opportunity	-9.90906
▁magazine	-9.90943
▁pe	-9.90982
▁raw	-9.90995
▁leaving	-9.91039
▁differences	-9.91143
▁stuff	-9.91149
▁ohio	-9.91191
▁pattern	-9.91206
▁peace	-9.91208
▁truth	-9.91231
▁cooking	-9.91241
▁explain	-9.91266
▁americans	-9.91322
▁su	-9.91323
ford	-9.91393
▁creating	-9.91415
▁frequency	-9.91499
▁pair	-9.91552
▁determined	-9.91664
▁facilities	-9.91667
▁instructions	-9.91775
looked	-9.91839
▁jackson	-9.91891
▁density	-9.91897
▁constant	-9.91907
▁felt	-9.91986
▁install	-9.91997
▁sister	-9.92155
▁decide	-9.92158
▁electrical	-9.92194
▁94	-9.92268
▁georgia	-9.92313
▁86	-9.92391
▁assistance	-9.92391
▁portion	-9.92419
▁friday	-9.92482
▁firm	-9.92502
▁developing	-9.9257
▁manage	-9.92679
▁finding	-9.92811
▁canadian	-9.92849
▁properly	-9.92853
▁assessment	-9.92903
▁sky	-9.93067
▁helped	-9.93114
▁payments	-9.93126
32	-9.93136
▁privacy	-9.93248
▁introduction	-9.93259
▁default	-9.93303
▁components	-9.93313
▁immune	-9.93353
▁golden	-9.93372
▁combined	-9.93383
▁agreed	-9.93447
▁selection	-9.93512
▁pink	-9.93584
▁settings	-9.9362
▁henry	-9.93626
▁express	-9.93663
▁appeared	-9.93688
▁kitchen	-9.93694
▁amounts	-9.93733
▁speak	-9.93745
▁accept	-9.93763
▁82	-9.93845
▁shared	-9.93899
▁wave	-9.93943
▁87	-9.93964
▁lived	-9.93964
▁prime	-9.93987
▁returns	-9.9406
▁physician	-9.94129
▁respect	-9.94136
led	-9.94247
▁revenue	-9.94295
26	-9.94317
▁electronic	-9.94365
▁context	-9.94493
▁menu	-9.94497
▁organizations	-9.94507
▁concept	-9.94774
▁judge	-9.94775
▁teacher	-9.94907
▁wish	-9.95038
▁summary	-9.95052
▁publishing	-9.95066
▁pounds	-9.95076
▁thin	-9.95191
▁earn	-9.95197
▁par	-9.953
▁girls	-9.95313
▁formation	-9.95417
▁vehicles	-9.95457
how	-9.95521
▁600	-9.95541
▁smart	-9.95574
▁accounts	-9.95667
▁falls	-9.95716
▁industrial	-9.95742
▁changing	-9.95749
▁package	-9.95753
▁mile	-9.95758
▁paris	-9.96012
▁buildings	-9.96058
▁videos	-9.9613
▁relative	-9.96152
▁anxiety	-9.96188
▁interested	-9.96216
▁oz	-9.96243
▁songs	-9.96254
▁fashion	-9.96318
▁previously	-9.96357
▁mini	-9.96394
▁decided	-9.96417
▁kept	-9.96417
▁false	-9.96419
▁rank	-9.9642
▁republic	-9.96442
▁opened	-9.96449
▁nurse	-9.96466
▁transport	-9.96528
▁legs	-9.96563
▁regional	-9.96582
▁opinion	-9.9668
▁topics	-9.96688
▁forest	-9.96782
31	-9.96832
▁drinking	-9.96875
▁keeping	-9.96889
▁mortgage	-9.96942
▁linked	-9.96953
▁cultural	-9.9698
▁instance	-9.97065
▁donald	-9.9712
▁92	-9.97263
▁walking	-9.97305
her	-9.97415
▁amazing	-9.97434
▁effort	-9.97524
▁temperatures	-9.97601
▁tank	-9.97612
▁mph	-9.97622
▁explore	-9.97642
▁gross	-9.97676
▁actions	-9.97684
▁becoming	-9.97709
▁resulting	-9.97711
▁task	-9.97731
▁permanent	-9.97801
▁unknown	-9.97818
▁bell	-9.97842
▁miss	-9.97906
▁announced	-9.98038
▁solutions	-9.98236
▁wiki	-9.9835
▁reality	-9.98483
▁→	-9.98492
▁sheet	-9.98519
▁twice	-9.98536
▁inflammation	-9.98548
▁advantage	-9.9858
▁discussion	-9.98623
▁domestic	-9.98684
▁frame	-9.987
▁academic	-9.98703
gen	-9.98705
der	-9.98772
pro	-9.98844
▁depth	-9.98876
▁sq	-9.98879
▁marine	-9.98886
▁broken	-9.98939
▁constitution	-9.98983
▁guest	-9.99001
▁secondary	-9.99051
▁votes	-9.99063
▁treatments	-9.99087
▁bra	-9.99094
▁connect	-9.99103
▁owned	-9.99119
▁guy	-9.99184
▁jo	-9.99201
▁camp	-9.99248
▁reactions	-9.99261
▁camera	-9.99271
town	-9.99326
mar	-9.99349
▁random	-9.99366
▁characteristics	-9.99381
▁topic	-9.99455
▁eligible	-9.99587
▁intended	-9.99637
▁quote	-9.99689
▁101	-9.997
▁calls	-9.99723
▁wire	-9.99789
▁mom	-9.99815
▁centre	-9.99914
▁films	-9.99937
▁ja	-9.99963
add	-9.99988
▁93	-9.99996
▁91	-10.0001
▁fox	-10.0006
TM	-10.0006
▁begins	-10.0011
▁mount	-10.0016
▁classes	-10.0017
▁custom	-10.0023
▁farm	-10.0027
▁juice	-10.0027
▁boston	-10.0033
ful	-10.0034
▁dance	-10.0036
▁bob	-10.0036
▁friendly	-10.004
▁bc	-10.0043
▁joined	-10.0048
▁rice	-10.0055
▁bed	-10.0058
▁freedom	-10.0067
ber	-10.0068
▁harry	-10.0074
▁pennsylvania	-10.0079
▁del	-10.0087
▁fund	-10.0093
▁bowl	-10.0101
▁salaries	-10.0104
▁prepare	-10.0104
▁extended	-10.0108
▁certified	-10.0123
▁entertainment	-10.0128
▁conference	-10.0132
▁facility	-10.0134
ating	-10.0145
▁funds	-10.0147
▁coat	-10.0147
▁issued	-10.0157
▁michigan	-10.0159
les	-10.0163
▁projects	-10.0164
▁significantly	-10.0165
▁persons	-10.0172
▁kit	-10.0178
▁oldest	-10.0183
▁techniques	-10.0186
▁processing	-10.0187
28	-10.0209
▁roll	-10.021
▁bleeding	-10.0213
▁monday	-10.0217
ker	-10.0219
▁connected	-10.0224
ace	-10.0224
▁agents	-10.0226
▁corn	-10.0228
▁occurred	-10.0231
▁talking	-10.0242
▁pad	-10.0242
car	-10.0244
▁assistant	-10.0246
▁hollywood	-10.0251
▁cite	-10.0254
▁holding	-10.0264
▁religion	-10.0266
▁seeds	-10.0269
▁showed	-10.0275
▁onto	-10.0292
▁shares	-10.0299
▁lung	-10.0301
▁peak	-10.0305
▁label	-10.0308
▁languages	-10.0309
port	-10.031
▁detail	-10.0321
▁cart	-10.0345
▁border	-10.0345
▁cl	-10.0346
▁panel	-10.0358
▁pull	-10.0367
▁guidelines	-10.0369
▁cord	-10.038
▁duty	-10.0385
▁manual	-10.0387
▁audio	-10.0399
▁attempt	-10.04
▁parking	-10.0408
▁urban	-10.041
ver	-10.0411
▁describe	-10.0413
▁supported	-10.0415
▁hyper	-10.0415
▁specifically	-10.0422
▁represent	-10.0426
▁objects	-10.0438
▁restaurant	-10.045
▁primarily	-10.045
▁gray	-10.0451
▁nine	-10.0456
▁nuclear	-10.0459
▁certificate	-10.0465
▁seek	-10.0468
▁bread	-10.0472
▁educational	-10.048
▁academy	-10.0486
▁reduction	-10.0489
▁usage	-10.0489
▁variable	-10.0493
▁artist	-10.0495
▁parties	-10.0495
▁symbol	-10.0499
▁russian	-10.0501
▁expand	-10.0501
▁obtain	-10.0502
▁meal	-10.0507
▁signal	-10.0507
▁recipes	-10.0511
▁buying	-10.0521
▁zero	-10.0529
▁wheel	-10.054
▁trouble	-10.055
▁profit	-10.0553
▁prevention	-10.0554
▁faster	-10.0556
▁radiation	-10.0561
▁islands	-10.0562
▁greatest	-10.0564
▁progress	-10.0565
▁ideal	-10.0567
▁assets	-10.0569
▁installation	-10.0569
▁substance	-10.0574
▁illinois	-10.0574
▁teaching	-10.0578
▁identified	-10.0581
▁1960	-10.0581
▁derived	-10.0585
▁expenses	-10.0588
▁australian	-10.0602
▁truck	-10.0609
▁signed	-10.061
▁dental	-10.062
▁holiday	-10.0622
▁column	-10.0642
▁expert	-10.0645
▁concentration	-10.065
▁numerous	-10.0651
▁extension	-10.0657
▁sounds	-10.0665
▁mixed	-10.0667
▁beauty	-10.0671
▁returned	-10.0678
▁replaced	-10.068
▁gift	-10.0683
all	-10.0684
▁forum	-10.0687
▁relief	-10.0694
▁williams	-10.0697
▁finance	-10.0699
▁codes	-10.0699
▁gender	-10.0707
▁measures	-10.071
▁knee	-10.0719
▁directions	-10.0723
▁hotels	-10.0729
▁expression	-10.074
▁dependent	-10.0741
▁louis	-10.0748
▁pack	-10.0748
▁fourth	-10.075
▁kim	-10.0752
▁professor	-10.0755
▁mu	-10.0755
▁selling	-10.0755
▁rent	-10.076
▁pieces	-10.0767
ability	-10.0771
▁powder	-10.0773
▁structures	-10.0776
▁discovered	-10.0781
well	-10.0785
can	-10.0786
▁aircraft	-10.0786
▁1000	-10.0786
▁sum	-10.0792
▁thousands	-10.0797
▁joe	-10.0802
▁revealed	-10.0808
▁llc	-10.0809
▁gone	-10.0813
▁indicate	-10.082
▁hormone	-10.0822
▁hip	-10.0825
▁bird	-10.0827
▁1989	-10.0829
▁bear	-10.0833
▁policies	-10.0847
▁proteins	-10.0857
▁boat	-10.0858
▁exist	-10.0859
38	-10.086
▁reflect	-10.087
▁literature	-10.088
▁scene	-10.088
▁angle	-10.0883
▁sport	-10.0886
▁cal	-10.0887
▁decrease	-10.09
▁mike	-10.0911
36	-10.0915
▁embed	-10.0916
bar	-10.0935
▁storm	-10.094
▁swelling	-10.0943
▁input	-10.0944
end	-10.0948
▁contrast	-10.0948
▁math	-10.0948
▁charges	-10.0948
▁equivalent	-10.0952
▁resource	-10.0952
▁dangerous	-10.0953
▁runs	-10.0961
head	-10.0962
▁nose	-10.0964
▁corporate	-10.0966
▁thyroid	-10.0983
▁tweet	-10.0989
▁butter	-10.0992
34	-10.1006
▁extreme	-10.1011
▁fly	-10.102
▁define	-10.1043
▁handle	-10.106
▁membrane	-10.1061
▁ban	-10.1063
▁discuss	-10.1064
▁experienced	-10.1071
▁lists	-10.1076
▁bought	-10.1091
▁receiving	-10.1094
way	-10.1107
▁asia	-10.1108
▁widely	-10.1122
▁paying	-10.1127
▁starts	-10.1128
lan	-10.1129
▁exam	-10.1131
▁accepted	-10.1151
▁standing	-10.1163
▁achieve	-10.1166
▁dinner	-10.1169
▁reporting	-10.1174
▁mine	-10.1182
ble	-10.1182
tion	-10.1186
▁editor	-10.1187
this	-10.1187
▁sit	-10.1194
▁cholesterol	-10.1194
▁mild	-10.1206
▁filled	-10.1207
▁planet	-10.1209
▁communities	-10.1224
▁manner	-10.1226
▁letters	-10.1226
▁roof	-10.1227
▁noted	-10.1228
▁prepared	-10.1228
▁lab	-10.1232
▁saturday	-10.1232
▁glucose	-10.124
min	-10.124
▁tickets	-10.1241
▁1988	-10.1241
▁mon	-10.1242
▁pot	-10.1246
▁submit	-10.1246
▁clearly	-10.125
▁knew	-10.1251
see	-10.1252
▁historic	-10.1253
▁advance	-10.1254
▁replies	-10.1257
▁businesses	-10.1273
▁finish	-10.1289
æ	-10.1292
▁installed	-10.1295
kin	-10.1298
▁tract	-10.1302
▁ran	-10.1305
▁frank	-10.1311
▁sh	-10.1313
▁moderate	-10.1324
med	-10.1328
▁observed	-10.1337
41	-10.1345
▁proposed	-10.1347
▁bodies	-10.1349
▁pump	-10.135
▁charged	-10.1351
▁retirement	-10.1361
▁quarter	-10.1364
▁burn	-10.1365
▁je	-10.137
▁thick	-10.1374
▁spirit	-10.1384
▁courses	-10.1389
▁lots	-10.139
▁dollar	-10.1392
▁kardashian	-10.1399
▁possibly	-10.1401
▁movies	-10.1402
▁strategy	-10.1404
▁italy	-10.1412
▁tells	-10.1414
▁guard	-10.1432
▁presidential	-10.1439
▁cor	-10.144
45	-10.1441
▁russia	-10.1445
mon	-10.1453
▁navy	-10.1456
▁divorce	-10.1459
▁raised	-10.1467
off	-10.1471
▁concrete	-10.1474
▁intake	-10.1477
▁domain	-10.1478
▁removal	-10.1479
▁ahead	-10.1497
▁christmas	-10.15
▁ratings	-10.15
▁cleaning	-10.1503
▁revolution	-10.1507
▁featured	-10.1524
▁component	-10.1529
▁definitions	-10.1532
▁stated	-10.1532
▁registration	-10.1534
▁competition	-10.1539
▁comparison	-10.1544
▁goals	-10.1545
▁flowers	-10.1545
▁draw	-10.1548
▁baseball	-10.1558
▁worse	-10.1559
ong	-10.1561
▁hills	-10.1563
▁reached	-10.1573
▁regulations	-10.1573
▁regions	-10.1575
▁biggest	-10.1579
▁somewhat	-10.1579
▁acts	-10.158
▁failed	-10.1582
50	-10.1589
▁nations	-10.1589
▁exclusive	-10.1593
▁studio	-10.1594
▁vegetables	-10.1595
▁acids	-10.1598
▁whatever	-10.16
▁seed	-10.1613
▁900	-10.1613
▁estimate	-10.1616
our	-10.1618
▁evaluation	-10.1618
▁biology	-10.1629
▁ride	-10.1643
▁accurate	-10.1645
▁loans	-10.1661
▁happened	-10.1663
▁pure	-10.167
▁welcome	-10.1676
▁columbia	-10.1677
▁1986	-10.1682
▁excess	-10.1685
▁tab	-10.1689
▁flu	-10.169
▁musical	-10.169
▁premium	-10.1696
▁spain	-10.1704
▁missing	-10.1707
▁taylor	-10.1713
▁sauce	-10.1714
▁throat	-10.1715
▁birds	-10.1718
▁tiny	-10.172
▁breathing	-10.1725
▁fix	-10.1737
uk	-10.1741
▁chi	-10.1744
▁110	-10.1755
▁transmission	-10.176
▁contribute	-10.1761
▁dollars	-10.1767
▁lock	-10.1768
▁pen	-10.1771
ster	-10.1779
▁retail	-10.1783
▁whom	-10.1786
▁fifth	-10.1797
▁households	-10.1809
▁beer	-10.1809
▁breath	-10.1816
▁lady	-10.1818
▁smooth	-10.1819
▁fields	-10.1819
▁unlike	-10.1834
▁festival	-10.1841
▁filter	-10.1848
▁rapid	-10.1849
▁jump	-10.1849
▁bachelor	-10.1856
▁secure	-10.1869
▁translation	-10.1877
▁prison	-10.1883
▁instagram	-10.1897
▁wage	-10.1898
▁raise	-10.1908
▁crew	-10.191
▁attached	-10.1913
▁monitor	-10.192
▁ltd	-10.1923
▁aware	-10.1924
▁rear	-10.1926
don	-10.1928
▁shock	-10.1931
▁flash	-10.1931
▁suggested	-10.1935
▁shopping	-10.1935
▁colorado	-10.1938
▁divided	-10.1941
▁joseph	-10.1954
▁molecules	-10.1956
▁adverse	-10.1957
€	-10.1957
▁resident	-10.196
▁synonyms	-10.1964
▁speaking	-10.1966
izing	-10.1968
53	-10.1969
▁prescription	-10.197
▁remaining	-10.1971
▁stick	-10.1972
▁allowing	-10.1978
ring	-10.1982
▁involves	-10.1989
▁nearby	-10.1991
▁officers	-10.1995
▁identity	-10.1999
▁rated	-10.2
▁illness	-10.2002
▁examination	-10.2006
▁francisco	-10.2009
▁magic	-10.2016
▁creek	-10.202
▁acting	-10.2024
▁mis	-10.2024
▁males	-10.2027
▁lay	-10.2027
▁heritage	-10.2038
▁automatically	-10.204
▁mainly	-10.2041
▁insulin	-10.2045
▁sec	-10.2045
▁forecast	-10.2047
▁savings	-10.2047
▁medicare	-10.2048
board	-10.2048
▁apart	-10.2048
▁cu	-10.2049
▁researchers	-10.2056
▁stroke	-10.2057
▁wireless	-10.2083
▁irish	-10.2085
▁classification	-10.209
▁christ	-10.2095
▁lincoln	-10.2102
ated	-10.2102
▁scan	-10.2117
▁accessed	-10.2121
▁senate	-10.2132
▁circuit	-10.2133
what	-10.2137
▁filing	-10.2143
▁cutting	-10.2153
▁golf	-10.2153
▁britain	-10.2157
ole	-10.2157
▁thread	-10.2159
▁burning	-10.2159
33	-10.2162
▁ended	-10.2162
▁interior	-10.2164
▁leads	-10.2171
chi	-10.218
▁calendar	-10.2181
▁broad	-10.2182
side	-10.2193
▁oxford	-10.2196
▁proof	-10.2196
▁jim	-10.22
▁technique	-10.22
▁limits	-10.2207
▁opportunities	-10.221
▁highway	-10.2215
▁jesus	-10.2215
▁prefer	-10.2217
▁presented	-10.2222
▁push	-10.2226
▁carried	-10.2226
▁definitely	-10.2228
▁valve	-10.2233
▁practices	-10.2236
▁stream	-10.2237
▁politics	-10.2241
▁females	-10.2244
▁follows	-10.2244
▁scientists	-10.2249
▁importance	-10.2253
▁citizens	-10.2253
▁ku	-10.2261
▁ram	-10.2267
▁walls	-10.2282
▁relevant	-10.2285
▁fed	-10.2293
▁trail	-10.2299
▁seconds	-10.2302
▁125	-10.2304
▁manufacturing	-10.2308
▁nervous	-10.232
▁wants	-10.2322
▁br	-10.2324
▁vacation	-10.2328
▁conduct	-10.2329
▁respiratory	-10.2331
▁bottle	-10.2332
▁bones	-10.2336
42	-10.2351
▁orders	-10.2358
ran	-10.2363
▁surgical	-10.2366
▁1987	-10.2369
▁poly	-10.237
▁las	-10.2376
▁attacks	-10.2377
▁laboratory	-10.2383
▁verb	-10.2385
ø	-10.2386
▁shell	-10.2397
▁governor	-10.2399
▁helping	-10.2401
▁hole	-10.241
▁owners	-10.2413
▁leadership	-10.2414
▁forced	-10.2414
▁intelligence	-10.2419
▁patterns	-10.242
▁supreme	-10.2424
▁challenge	-10.2426
▁continues	-10.2432
▁1985	-10.2441
▁sets	-10.2441
▁miami	-10.2442
ology	-10.2444
▁visa	-10.2448
▁accounting	-10.245
▁tall	-10.2458
▁communications	-10.2463
▁beef	-10.2464
▁password	-10.2465
▁centers	-10.2465
▁smoke	-10.2466
▁para	-10.2466
▁chemistry	-10.2475
▁copper	-10.2475
ure	-10.2476
▁founded	-10.2476
▁earned	-10.2478
▁warning	-10.248
▁saint	-10.2482
▁ticket	-10.2482
▁credits	-10.249
▁elizabeth	-10.2492
▁sharp	-10.2494
▁sides	-10.2498
ions	-10.2499
▁learned	-10.2501
let	-10.2508
▁har	-10.2508
▁ends	-10.2511
▁anonymous	-10.2519
▁certification	-10.2519
▁figures	-10.2522
ide	-10.253
▁sentence	-10.2531
▁purchased	-10.2533
▁inner	-10.2534
▁resolution	-10.2536
▁psychology	-10.2538
▁stem	-10.254
▁tim	-10.2542
▁birthday	-10.2544
▁sensitive	-10.255
▁winning	-10.2565
▁avenue	-10.2567
▁certainly	-10.2568
▁nyc	-10.2568
▁arthritis	-10.2571
100	-10.2571
▁emotional	-10.2574
▁novel	-10.2575
▁symptom	-10.2578
▁clinic	-10.258
▁weekly	-10.2586
house	-10.2589
▁700	-10.259
▁roots	-10.259
▁myself	-10.259
▁permalink	-10.2591
▁hu	-10.2591
▁semi	-10.2593
▁arizona	-10.2597
▁excel	-10.2605
▁existence	-10.2606
▁tap	-10.2618
▁personality	-10.2619
▁obama	-10.2621
▁wonder	-10.2624
▁leaders	-10.263
▁opposite	-10.2633
▁rna	-10.2634
▁acres	-10.2645
▁mixture	-10.265
▁shoulder	-10.2654
99	-10.2681
▁sequence	-10.2682
▁pl	-10.269
▁universal	-10.2693
▁miller	-10.2694
▁stations	-10.2696
▁younger	-10.2701
▁healing	-10.2701
▁directed	-10.2702
▁responsibility	-10.2706
▁chocolate	-10.2713
▁boys	-10.2717
▁pr	-10.2721
▁exact	-10.2722
▁banks	-10.2723
▁abdominal	-10.2725
▁managed	-10.2725
▁assembly	-10.273
▁neuro	-10.2734
▁assigned	-10.2752
▁discover	-10.2754
▁soul	-10.2755
▁beat	-10.2756
▁campus	-10.2757
▁measured	-10.2759
▁fig	-10.2763
▁sharing	-10.2765
▁periods	-10.2766
▁turns	-10.2766
▁obtained	-10.2767
▁android	-10.2769
▁decisions	-10.2773
▁principal	-10.2775
▁bright	-10.278
▁disc	-10.2784
40	-10.2785
▁waiting	-10.2785
▁dvd	-10.2787
▁vessels	-10.2789
▁recognized	-10.2789
▁cats	-10.2795
▁grass	-10.2799
▁santa	-10.281
▁teachers	-10.2818
ang	-10.2818
▁feedback	-10.2819
▁ver	-10.2827
▁graduate	-10.2829
▁honor	-10.2836
▁creative	-10.2836
▁anywhere	-10.2836
▁teams	-10.2844
▁efforts	-10.2857
▁naturally	-10.2857
▁portal	-10.2864
▁producing	-10.2867
▁rooms	-10.2873
▁drama	-10.288
▁escape	-10.2882
▁tested	-10.2884
▁script	-10.2886
▁tower	-10.2887
▁plays	-10.2894
▁mil	-10.2898
▁mono	-10.2901
ven	-10.2906
▁formats	-10.2909
▁injection	-10.2909
▁cambridge	-10.2914
▁secretary	-10.2915
com	-10.2924
▁consumption	-10.2929
▁corner	-10.2939
▁des	-10.2942
▁superior	-10.2949
▁fri	-10.2958
▁accident	-10.296
01	-10.2965
▁nj	-10.2971
▁assume	-10.2974
▁supplements	-10.2974
▁fishing	-10.2976
ence	-10.2976
▁surrounding	-10.298
▁republican	-10.2983
▁catch	-10.2988
▁producer	-10.299
▁calculate	-10.299
64	-10.2991
▁disability	-10.2994
▁180	-10.2996
▁monitoring	-10.2997
▁deficiency	-10.3001
▁hydrogen	-10.3003
▁crown	-10.3009
▁slowly	-10.3017
▁fitness	-10.3019
▁pal	-10.3024
▁relationships	-10.3026
▁plot	-10.3035
▁concern	-10.3039
▁formal	-10.3039
39	-10.3043
▁daniel	-10.3043
▁steve	-10.3045
▁asian	-10.3048
▁thesaurus	-10.3049
▁agencies	-10.3052
▁calling	-10.3062
▁ireland	-10.307
▁drivers	-10.3078
▁basketball	-10.3078
▁vice	-10.3079
▁improvement	-10.3081
▁circumstances	-10.3086
▁artery	-10.3086
▁counties	-10.3092
▁supplies	-10.3093
▁finished	-10.3096
▁administrative	-10.3096
▁guess	-10.3097
▁spinal	-10.3098
▁seeing	-10.3099
ric	-10.3105
▁bu	-10.3105
▁specified	-10.3109
▁mill	-10.3111
believed	-10.3111
▁clients	-10.3111
▁lowest	-10.3116
▁submitted	-10.3125
▁compensation	-10.3127
▁experts	-10.3134
▁complications	-10.3135
▁creation	-10.3138
tal	-10.3147
▁sir	-10.3154
▁circle	-10.3161
▁stored	-10.3162
▁oven	-10.3163
ile	-10.3165
▁organ	-10.3167
▁catholic	-10.3168
▁turkey	-10.3181
▁exposed	-10.3181
▁za	-10.3181
▁evolution	-10.3183
▁grown	-10.3193
▁atlantic	-10.3196
▁platform	-10.3199
▁maps	-10.3203
▁fda	-10.3206
▁subscribe	-10.3208
▁coach	-10.3215
▁terminal	-10.3218
▁mor	-10.3219
▁fighting	-10.3219
▁goods	-10.3225
▁injuries	-10.3228
▁putting	-10.3228
▁visible	-10.3236
▁dates	-10.3243
▁hiv	-10.3246
ised	-10.3255
▁andrew	-10.3257
▁toxic	-10.3261
unable	-10.3262
▁restaurants	-10.3273
▁session	-10.3275
▁rocks	-10.3278
▁loved	-10.3292
che	-10.3302
▁tongue	-10.3309
▁smoking	-10.3311
▁pound	-10.3312
▁shift	-10.3313
air	-10.3315
▁jay	-10.3315
▁occupations	-10.3329
▁beta	-10.3332
▁conflict	-10.3338
▁resort	-10.3339
▁smell	-10.3344
top	-10.3345
ck	-10.3347
51	-10.3348
you	-10.335
▁suggests	-10.3352
▁irs	-10.3357
▁rental	-10.3364
▁tail	-10.3371
res	-10.3372
▁wearing	-10.3379
▁reserve	-10.338
▁dutch	-10.3386
▁brief	-10.3395
▁honey	-10.3396
▁closely	-10.3404
▁1950	-10.3412
location	-10.3415
37	-10.3415
▁tape	-10.3421
▁houston	-10.3421
▁desert	-10.3424
▁democratic	-10.3439
▁confidence	-10.344
▁matt	-10.3441
▁weekend	-10.3448
▁covers	-10.3449
▁leaf	-10.3451
▁potassium	-10.3457
▁worst	-10.3458
▁spending	-10.3458
35	-10.3465
▁valid	-10.3475
▁nutrients	-10.3479
▁offering	-10.349
▁mountains	-10.3491
▁tags	-10.3491
▁difficulty	-10.3507
▁snap	-10.3509
▁shaped	-10.3512
▁compound	-10.3514
▁wilson	-10.3516
▁flavor	-10.3517
die	-10.3522
▁edu	-10.3524
▁pepper	-10.3524
▁105	-10.3525
▁prove	-10.3526
▁criteria	-10.3526
▁kid	-10.3533
▁dar	-10.3535
ð	-10.3537
▁amendment	-10.354
▁diamond	-10.3543
▁1984	-10.3544
▁flower	-10.3545
▁sick	-10.3548
▁breaking	-10.355
▁specialist	-10.3552
▁worldwide	-10.3553
▁gear	-10.3558
▁philadelphia	-10.356
▁spray	-10.3561
cal	-10.3566
▁reducing	-10.3566
▁thompson	-10.3567
▁marked	-10.3568
▁width	-10.3571
▁manufacturer	-10.3573
▁remote	-10.3576
▁improved	-10.3579
▁frequent	-10.3586
▁advertising	-10.3589
▁temporary	-10.359
▁lie	-10.359
▁comfortable	-10.3592
▁dosage	-10.3592
▁holds	-10.3593
▁mechanical	-10.3594
91	-10.3598
▁convert	-10.3599
▁container	-10.36
▁massachusetts	-10.3602
▁expressed	-10.3607
▁airlines	-10.3608
▁biological	-10.3623
▁alpha	-10.3624
▁faith	-10.3627
▁luck	-10.3627
44	-10.3629
▁weak	-10.363
▁permit	-10.3631
▁harper	-10.3634
▁functional	-10.3636
▁represents	-10.3637
▁preparation	-10.3638
▁finger	-10.364
ren	-10.3643
▁beans	-10.3643
pp	-10.3649
▁indeed	-10.3652
▁rarely	-10.3656
▁delivered	-10.3657
ping	-10.3659
▁regulation	-10.366
▁gen	-10.3664
▁giant	-10.3664
▁meant	-10.3666
▁ru	-10.3667
▁suit	-10.367
▁debate	-10.3672
stone	-10.3672
▁risks	-10.3674
▁pat	-10.3675
▁1979	-10.3677
▁indicates	-10.3677
▁messages	-10.368
▁bible	-10.3684
▁wars	-10.3685
▁breakfast	-10.3685
▁practical	-10.3696
▁qualified	-10.3697
▁lifestyle	-10.3698
▁gallery	-10.3702
▁journey	-10.371
▁atmosphere	-10.3723
▁enforcement	-10.3727
52	-10.3729
▁principles	-10.3731
▁cure	-10.3749
▁stephen	-10.375
▁concerns	-10.3751
▁hundred	-10.3753
gle	-10.3753
▁regularly	-10.3754
▁herself	-10.3764
▁reasonable	-10.3766
▁configuration	-10.3766
▁concerned	-10.3767
▁comprehensive	-10.3774
▁extent	-10.378
▁voltage	-10.3782
▁rash	-10.3787
▁tight	-10.3804
▁suffer	-10.3808
▁plenty	-10.381
▁evening	-10.3818
▁diarrhea	-10.3832
▁feeding	-10.3833
▁violence	-10.384
▁dad	-10.3841
▁asking	-10.3842
▁recording	-10.3855
mann	-10.3856
▁cheap	-10.3864
▁estimates	-10.3865
lic	-10.3867
▁bush	-10.3869
▁popularity	-10.387
▁plain	-10.387
83	-10.3872
▁array	-10.3872
▁territory	-10.3879
▁thursday	-10.3881
▁clothing	-10.3883
▁getty	-10.3883
▁respond	-10.3885
▁amino	-10.3889
▁initially	-10.3891
time	-10.3892
▁cooked	-10.3893
dale	-10.3897
▁duration	-10.3901
ties	-10.3903
▁tuesday	-10.391
▁grams	-10.3911
▁kansas	-10.3913
▁membership	-10.3915
▁conducted	-10.3918
▁narrow	-10.3922
74	-10.3933
▁telephone	-10.3933
▁mineral	-10.3935
dic	-10.3936
▁lemon	-10.3938
▁noise	-10.394
▁imp	-10.3949
49	-10.395
ious	-10.3953
▁expansion	-10.3953
▁reliable	-10.3958
▁requirement	-10.3963
▁relations	-10.3971
ette	-10.3973
▁enrollment	-10.3985
▁minnesota	-10.3986
▁fatigue	-10.3986
▁missouri	-10.3987
▁differ	-10.3991
▁oregon	-10.3994
ach	-10.4002
▁regardless	-10.4003
▁ordered	-10.4005
▁↑	-10.4009
▁template	-10.4017
▁trials	-10.4019
▁rid	-10.4019
▁ag	-10.402
▁pilot	-10.4023
92	-10.4023
▁explained	-10.4026
▁rev	-10.4028
▁loading	-10.4033
▁ref	-10.4035
▁murder	-10.4042
▁captain	-10.4042
▁caught	-10.4043
▁choices	-10.4044
▁excessive	-10.4046
▁consumers	-10.4061
▁1981	-10.4063
▁electricity	-10.4066
new	-10.4066
▁dragon	-10.4069
▁supporting	-10.4073
▁eric	-10.4075
▁bbc	-10.4077
08	-10.4085
water	-10.4086
▁reviewed	-10.4086
▁discharge	-10.409
▁memorial	-10.4095
▁partners	-10.4095
▁az	-10.4097
▁immediate	-10.4098
nce	-10.4099
▁canal	-10.4103
▁situations	-10.4105
▁flying	-10.4106
▁1982	-10.4109
▁indiana	-10.411
ries	-10.411
ung	-10.4113
▁palm	-10.4113
▁houses	-10.4114
▁lawyer	-10.4114
▁adam	-10.4115
▁deck	-10.4121
▁sorry	-10.4122
▁ages	-10.4124
ice	-10.4126
▁measurement	-10.413
▁lewis	-10.4132
▁cha	-10.4136
▁babies	-10.4137
▁plane	-10.414
▁magnitude	-10.4141
▁attend	-10.4142
▁licensed	-10.4145
▁leather	-10.4152
▁moves	-10.4154
▁1983	-10.4154
▁stable	-10.416
▁castle	-10.4163
▁plasma	-10.4164
▁tennessee	-10.4167
itis	-10.4167
▁steam	-10.4168
▁outdoor	-10.4174
▁listen	-10.4185
▁fur	-10.4188
04	-10.419
▁guitar	-10.4191
▁genes	-10.4193
▁outer	-10.4193
▁truly	-10.42
▁clock	-10.4201
▁jet	-10.4206
▁inflammatory	-10.4207
▁confirm	-10.4214
▁comfort	-10.4215
▁architecture	-10.4216
▁jail	-10.4224
▁alaska	-10.4227
▁cent	-10.4227
▁powers	-10.4228
▁interface	-10.4229
▁edward	-10.4229
▁produces	-10.4234
▁positions	-10.4234
▁associate	-10.4235
▁performing	-10.4238
▁compounds	-10.424
▁versions	-10.424
▁identification	-10.4246
▁hardware	-10.4252
▁bonds	-10.4256
▁crystal	-10.4262
share	-10.4265
▁independence	-10.4269
▁jennifer	-10.4278
▁representative	-10.4279
▁exit	-10.4283
cul	-10.4283
▁soviet	-10.4287
▁vegas	-10.4288
▁girlfriend	-10.4288
osis	-10.4289
home	-10.4291
▁diameter	-10.4297
qui	-10.4299
▁promote	-10.4299
▁doses	-10.4302
▁launch	-10.4304
zz	-10.4304
▁stands	-10.4305
▁ending	-10.4306
▁aspects	-10.4308
▁watching	-10.4313
60	-10.4315
▁mad	-10.4318
▁unfortunately	-10.4319
▁efficient	-10.4319
▁130	-10.4319
▁composition	-10.4323
▁saving	-10.4329
▁diagnosed	-10.4333
▁lunch	-10.4336
▁automatic	-10.4336
▁fell	-10.4336
consists	-10.4338
▁protected	-10.4341
▁supplement	-10.4342
other	-10.4346
low	-10.435
▁scores	-10.4352
▁davis	-10.4352
har	-10.4355
▁employed	-10.4361
▁encourage	-10.4365
▁pit	-10.4367
▁statements	-10.4369
▁dish	-10.4369
▁assist	-10.4373
▁appeal	-10.4375
▁organs	-10.4379
▁soldiers	-10.4383
▁cotton	-10.4386
free	-10.4393
ick	-10.4395
▁exception	-10.4396
▁dust	-10.4404
▁bacterial	-10.4409
▁mechanism	-10.4413
▁adopted	-10.4416
▁conversion	-10.4417
▁israel	-10.4417
▁bat	-10.4423
▁ki	-10.4425
▁transition	-10.4427
▁earnings	-10.4428
▁contribution	-10.4429
▁nausea	-10.4431
▁hell	-10.4431
▁shoes	-10.4433
▁judgment	-10.4439
▁160	-10.4441
▁alex	-10.4442
▁professionals	-10.4442
▁considering	-10.4445
▁organisms	-10.4447
▁philosophy	-10.4452
▁evil	-10.4453
▁mexican	-10.4455
ade	-10.4456
▁calculator	-10.4456
ship	-10.4457
▁tooth	-10.4459
▁bowel	-10.4465
▁approval	-10.4465
▁effectively	-10.4466
62	-10.4469
▁wash	-10.4469
▁prescribed	-10.447
▁contained	-10.4472
buy	-10.4472
▁whereas	-10.4476
pre	-10.4481
tel	-10.4483
▁tumor	-10.4483
▁offices	-10.4484
gan	-10.4486
▁investigation	-10.4494
▁digestive	-10.4495
▁reader	-10.4497
▁grey	-10.4498
▁wisconsin	-10.45
▁capable	-10.45
▁experiences	-10.4503
▁entered	-10.4505
▁princess	-10.4511
▁ky	-10.4513
▁killing	-10.4513
▁minister	-10.452
▁wednesday	-10.4521
▁appointment	-10.4524
▁abnormal	-10.4524
▁withdrawal	-10.4529
▁bath	-10.4532
▁subjects	-10.4532
▁sch	-10.4533
▁universe	-10.4535
▁availability	-10.4541
▁painful	-10.4542
81	-10.4545
▁diagnostic	-10.4547
▁deliver	-10.4548
▁heads	-10.4548
▁dating	-10.4553
▁sitting	-10.4558
▁artists	-10.4561
▁waves	-10.4562
▁ryan	-10.4569
▁chemicals	-10.457
▁stopped	-10.457
berg	-10.457
▁audience	-10.4571
▁elections	-10.4575
▁renal	-10.4577
▁modified	-10.4578
▁parks	-10.4585
▁sciences	-10.4586
▁neither	-10.459
navigation	-10.4592
▁neighborhood	-10.4596
▁substances	-10.4601
▁rod	-10.4608
ella	-10.4612
▁atlanta	-10.4613
▁sufficient	-10.4614
rate	-10.4615
▁remained	-10.4617
▁discovery	-10.4618
▁spin	-10.4623
×	-10.4626
▁fame	-10.4633
▁mention	-10.4635
▁carefully	-10.4638
▁soap	-10.464
bel	-10.4643
▁tissues	-10.4647
▁nba	-10.4652
▁listing	-10.4653
▁flights	-10.4657
▁establish	-10.4663
▁brian	-10.4663
▁abc	-10.4672
▁bikini	-10.4676
▁bladder	-10.4681
▁minerals	-10.4689
▁colon	-10.4696
▁wolf	-10.4697
▁crisis	-10.4699
▁doubt	-10.4703
▁personnel	-10.4707
▁illegal	-10.4713
▁gel	-10.4715
▁springs	-10.4715
▁debut	-10.4719
▁comedy	-10.4722
▁convention	-10.4727
▁harm	-10.4728
▁turning	-10.4729
▁hidden	-10.4734
ities	-10.4735
▁currency	-10.4739
▁industries	-10.474
▁claimed	-10.4743
▁interactions	-10.4744
▁fruits	-10.4746
▁extensive	-10.4746
▁arch	-10.4746
▁passing	-10.4751
▁largely	-10.4756
▁140	-10.4757
▁usual	-10.4759
▁quotes	-10.4763
▁precipitation	-10.4763
▁varies	-10.4763
rom	-10.4772
▁ham	-10.4777
▁strike	-10.4783
▁routine	-10.4786
▁decreased	-10.4788
▁dietary	-10.4791
▁generate	-10.4791
▁marijuana	-10.4797
▁fabric	-10.4797
▁jewish	-10.4804
▁draft	-10.4806
▁indicated	-10.481
▁efficiency	-10.4811
▁deposit	-10.4819
▁elected	-10.4829
ists	-10.4833
▁vaccine	-10.4835
▁shirt	-10.4839
▁1975	-10.4839
▁allergic	-10.4844
▁rapidly	-10.4845
▁kinds	-10.4845
▁screening	-10.4849
▁antibiotics	-10.4851
▁houghton	-10.4854
▁olive	-10.4855
▁reverse	-10.4856
▁oak	-10.4856
▁institution	-10.4857
▁depend	-10.4858
nic	-10.4859
▁institutions	-10.4861
▁pipe	-10.4862
▁transaction	-10.4864
▁ridge	-10.4865
▁gu	-10.4867
▁102	-10.4867
▁infected	-10.4868
▁lift	-10.4868
▁affects	-10.487
▁ˈ	-10.4876
▁absolutely	-10.4884
▁affairs	-10.4886
▁worker	-10.4886
▁strategies	-10.4889
▁composed	-10.4893
86	-10.4895
▁shooting	-10.49
▁thoughts	-10.4905
▁involving	-10.4911
▁massive	-10.4914
▁argument	-10.4922
▁vital	-10.4927
▁java	-10.4929
▁theatre	-10.4933
▁empty	-10.4935
61	-10.4935
▁publication	-10.4938
▁movements	-10.4938
▁upgrade	-10.4949
▁updates	-10.4955
▁worry	-10.4955
▁heating	-10.4957
▁virtual	-10.4965
▁twenty	-10.4966
▁seal	-10.4968
▁fairly	-10.4975
▁treating	-10.4977
▁quantity	-10.4979
▁ken	-10.4982
93	-10.4984
▁abstract	-10.4984
mifflin	-10.4986
▁branches	-10.4988
▁forget	-10.4994
▁clerk	-10.4996
▁grain	-10.4998
use	-10.5002
▁sha	-10.5002
▁utc	-10.5005
▁molecular	-10.5011
▁elementary	-10.5013
▁painting	-10.5018
▁usb	-10.5019
▁weapons	-10.5019
▁continuous	-10.5021
▁combat	-10.5024
▁closer	-10.5026
▁parallel	-10.5027
46	-10.5031
▁lungs	-10.5033
down	-10.5035
▁publishers	-10.5039
ell	-10.5043
▁maryland	-10.5044
▁hurt	-10.5046
▁cardiac	-10.5047
▁blind	-10.5049
▁consistent	-10.505
▁settlement	-10.5059
▁serves	-10.506
▁agriculture	-10.5065
▁victoria	-10.507
▁frozen	-10.5078
▁applying	-10.5079
▁belt	-10.508
▁engineer	-10.5083
▁laser	-10.5097
▁zealand	-10.51
▁bull	-10.5109
▁fail	-10.5124
▁township	-10.5124
▁classified	-10.513
90	-10.5131
05	-10.5133
▁seeking	-10.5135
▁spouse	-10.5136
▁liability	-10.5138
cher	-10.5139
▁operate	-10.5143
▁moisture	-10.5143
▁gland	-10.5143
▁headache	-10.5144
elle	-10.5145
▁assault	-10.5147
▁oklahoma	-10.5149
▁ultimately	-10.5153
gar	-10.5154
▁impossible	-10.5157
▁damaged	-10.5157
▁survive	-10.5162
▁rome	-10.5164
▁entirely	-10.5165
▁rob	-10.5165
zer	-10.5168
▁sql	-10.5179
▁tablets	-10.518
▁arc	-10.518
▁clinton	-10.5192
get	-10.5195
▁disk	-10.5198
▁bur	-10.5205
▁threat	-10.5205
06	-10.5208
▁respectively	-10.5208
▁physics	-10.521
98	-10.5215
▁hate	-10.5217
48	-10.5218
©	-10.5219
▁factory	-10.5222
▁scholar	-10.5225
are	-10.5227
▁sizes	-10.5227
▁1971	-10.5238
▁legend	-10.5241
43	-10.5247
▁basically	-10.5252
▁hundreds	-10.5252
▁decades	-10.5254
star	-10.5256
▁104	-10.5258
▁satellite	-10.5261
▁carrier	-10.5261
▁crop	-10.5262
▁nfl	-10.5262
▁perspective	-10.5264
▁acquired	-10.5265
▁lease	-10.5266
↑	-10.5268
▁thousand	-10.5271
▁necessarily	-10.5275
▁pine	-10.5275
▁tropical	-10.5276
posts	-10.5276
▁markets	-10.5277
▁dallas	-10.5282
▁underlying	-10.5284
▁employers	-10.5295
▁stages	-10.5296
▁×	-10.5298
ery	-10.5298
▁wonderful	-10.5298
▁mal	-10.5303
▁potentially	-10.5304
▁loose	-10.5311
▁vomiting	-10.5313
▁focused	-10.5315
▁vitamins	-10.5315
▁confirmed	-10.5328
▁bound	-10.533
▁brothers	-10.5331
▁yard	-10.5332
▁stadium	-10.5334
▁survival	-10.5338
▁magnetic	-10.5344
▁grew	-10.5346
▁latter	-10.5347
▁aged	-10.535
▁mouse	-10.5352
▁ste	-10.5352
▁repeat	-10.5354
▁metabolism	-10.5357
▁officials	-10.5357
▁nick	-10.536
▁morgan	-10.5361
▁binding	-10.5364
▁desire	-10.537
burg	-10.5375
▁preferred	-10.5375
▁wake	-10.5376
▁suffering	-10.5387
▁decline	-10.5388
▁familiar	-10.5388
▁skill	-10.5391
▁chosen	-10.5397
▁breaks	-10.5399
▁bigger	-10.5402
▁providers	-10.5406
▁candidate	-10.5408
▁yield	-10.5409
69	-10.5414
▁boost	-10.5415
▁alabama	-10.5417
▁suite	-10.5418
▁recommendations	-10.542
▁hybrid	-10.5422
▁knowing	-10.5422
ula	-10.5423
▁directory	-10.5424
▁cake	-10.5434
▁versus	-10.544
▁bre	-10.5445
▁losing	-10.5447
▁sections	-10.5452
▁cruise	-10.5457
54	-10.5461
▁hormones	-10.5463
70	-10.5466
▁findings	-10.5468
▁bass	-10.5468
▁earthquake	-10.547
▁ser	-10.5471
▁fewer	-10.5472
▁youth	-10.5473
▁fatty	-10.548
▁notable	-10.548
▁kentucky	-10.5482
▁gay	-10.5487
▁competitive	-10.549
▁drops	-10.549
▁inventory	-10.5492
▁collect	-10.5492
▁seattle	-10.5495
▁partial	-10.5498
▁supports	-10.5499
▁ultra	-10.5501
ken	-10.5505
▁resistant	-10.5506
▁applies	-10.5508
▁1978	-10.5509
▁trailer	-10.5513
▁wing	-10.5515
▁capture	-10.5517
▁particles	-10.5525
▁115	-10.5526
▁kelly	-10.5527
▁applicable	-10.5531
ica	-10.5539
▁temp	-10.5542
▁twin	-10.5542
cha	-10.5546
▁breed	-10.5547
▁partnership	-10.5549
▁biography	-10.555
▁guys	-10.5553
▁induced	-10.5557
▁cough	-10.5557
ban	-10.5564
▁throw	-10.5565
▁holy	-10.5566
▁careful	-10.5568
▁childhood	-10.5576
▁psychological	-10.5577
lar	-10.558
▁pricing	-10.558
▁broadcast	-10.5585
▁1976	-10.5587
▁collected	-10.5592
▁calorie	-10.5594
▁compliance	-10.5596
▁pork	-10.5597
▁chic	-10.5597
▁ultimate	-10.5601
ped	-10.5602
▁mrs	-10.5605
▁hits	-10.5605
▁unusual	-10.562
▁dedicated	-10.5624
▁hawaii	-10.5628
▁103	-10.5629
▁falling	-10.5633
▁ships	-10.5635
▁moral	-10.5636
▁downtown	-10.5638
▁exe	-10.564
▁purple	-10.564
▁blocks	-10.5641
▁106	-10.565
▁enzyme	-10.565
ball	-10.565
▁coal	-10.5656
▁instrument	-10.5657
▁107	-10.566
▁hence	-10.5661
▁principle	-10.5661
onic	-10.5663
▁kar	-10.5665
89	-10.5671
art	-10.5672
▁temple	-10.5675
▁subsequent	-10.5676
▁seasons	-10.5678
▁experiment	-10.5682
▁enable	-10.5684
▁enterprise	-10.5686
▁realize	-10.5687
▁incident	-10.5695
▁designated	-10.5696
80	-10.5701
▁trading	-10.5702
▁magnesium	-10.5703
▁controls	-10.5705
▁clay	-10.5708
55	-10.5709
▁spa	-10.571
82	-10.571
▁explanation	-10.571
▁distinct	-10.5711
▁350	-10.5714
ash	-10.5715
▁deals	-10.5729
▁tag	-10.5733
▁newest	-10.5736
▁wheat	-10.574
▁bike	-10.5742
▁spine	-10.5742
bra	-10.5742
▁mood	-10.5764
▁discussed	-10.5765
▁wealth	-10.5768
▁entity	-10.5769
▁tasks	-10.5769
day	-10.5775
ski	-10.5776
▁utility	-10.5779
▁outlook	-10.5784
▁greatly	-10.5784
▁insert	-10.5785
▁1969	-10.5787
▁swimming	-10.5788
▁sons	-10.5795
▁brands	-10.5795
▁urinary	-10.5797
▁sector	-10.5797
▁mold	-10.5798
▁1977	-10.5798
▁syn	-10.5804
▁visitors	-10.5805
71	-10.5811
▁successfully	-10.5811
▁participate	-10.5812
▁railroad	-10.5813
▁shi	-10.5816
del	-10.5818
▁vertical	-10.582
▁courts	-10.582
£	-10.5825
▁explorer	-10.5835
▁shoot	-10.5837
▁lyrics	-10.5838
▁occasionally	-10.5839
▁checked	-10.5841
▁aluminum	-10.5844
▁quiet	-10.5846
▁poverty	-10.5849
▁plug	-10.5851
▁enhance	-10.5852
▁residential	-10.5854
▁mississippi	-10.5854
▁jeff	-10.5862
▁justin	-10.5865
▁guarantee	-10.5867
▁founder	-10.5869
▁broadcasting	-10.5869
▁chair	-10.587
los	-10.587
▁yeast	-10.5871
▁simon	-10.5873
▁clark	-10.5874
▁drinks	-10.5877
▁col	-10.5878
val	-10.5879
▁ceo	-10.588
▁pie	-10.5883
▁loop	-10.5892
▁interests	-10.5903
▁inappropriate	-10.5907
▁lights	-10.592
▁wages	-10.592
▁caption	-10.5922
▁hop	-10.5922
▁tre	-10.5928
▁contemporary	-10.5935
▁1968	-10.5939
▁destination	-10.5941
▁gap	-10.5945
▁feels	-10.5954
▁achieved	-10.5954
▁dam	-10.5956
▁weakness	-10.5961
▁planned	-10.5969
▁louisiana	-10.5973
▁exceed	-10.5981
cho	-10.5984
ming	-10.5989
▁1974	-10.5991
▁1973	-10.5992
▁sponsored	-10.5994
▁adjust	-10.5998
▁patent	-10.6001
▁colour	-10.6004
▁roles	-10.6006
▁jean	-10.6006
▁lin	-10.6011
▁manufacturers	-10.6013
▁suitable	-10.6015
▁discount	-10.6019
▁teach	-10.6021
▁pulmonary	-10.6022
▁fax	-10.6024
▁shower	-10.6024
▁races	-10.6028
▁obvious	-10.603
▁studied	-10.6031
▁garlic	-10.6032
▁inspired	-10.6037
▁122	-10.6043
▁pokemon	-10.6044
▁ross	-10.6046
▁char	-10.6047
▁dual	-10.605
▁boyfriend	-10.6051
▁allen	-10.6054
▁grades	-10.6056
▁eliminate	-10.6056
▁represented	-10.6056
▁adjusted	-10.6059
▁removing	-10.606
▁spots	-10.6062
▁apps	-10.6063
▁conservation	-10.6063
▁passport	-10.6064
▁hay	-10.6065
▁absence	-10.6066
▁pu	-10.6069
▁machines	-10.6069
▁warranty	-10.6078
▁declared	-10.6079
▁flour	-10.6085
▁usd	-10.6085
▁clothes	-10.6095
▁imagine	-10.6095
form	-10.6098
▁trained	-10.6106
72	-10.6106
▁vast	-10.6108
▁boot	-10.611
09	-10.6118
▁1972	-10.6122
▁scope	-10.613
▁landscape	-10.6131
▁classical	-10.6132
97	-10.6136
▁salad	-10.6141
▁enzymes	-10.6148
▁hunting	-10.615
94	-10.6151
▁funding	-10.6154
▁explains	-10.6154
▁fre	-10.6154
▁technologies	-10.6156
▁layers	-10.6158
▁drain	-10.6159
▁tone	-10.6162
▁kevin	-10.617
▁seats	-10.6174
▁meals	-10.6175
▁deaths	-10.6175
khloe	-10.6177
▁closing	-10.6177
▁charts	-10.6177
▁solve	-10.6178
▁passes	-10.6181
02	-10.619
▁marks	-10.6191
▁carrying	-10.6196
▁korea	-10.6198
▁duties	-10.6204
▁cognitive	-10.6207
▁arrived	-10.6208
▁humidity	-10.6209
ward	-10.6211
▁hospitals	-10.6211
▁logo	-10.6215
▁ze	-10.6218
▁patrick	-10.6219
▁gravity	-10.6219
▁lbs	-10.622
▁seller	-10.6223
▁exercises	-10.6234
▁lean	-10.6235
▁organized	-10.6235
▁sudden	-10.6238
▁calculated	-10.6239
▁anatomy	-10.6253
istic	-10.6255
▁coconut	-10.6256
▁weigh	-10.6257
▁tough	-10.626
▁feelings	-10.626
65	-10.626
▁tradition	-10.626
▁douglas	-10.6262
▁errors	-10.6263
sville	-10.6264
▁interaction	-10.6265
▁describes	-10.6268
▁millions	-10.6272
▁headquarters	-10.6272
▁guardian	-10.6273
▁sim	-10.6274
▁thu	-10.6279
lie	-10.6281
▁metro	-10.6281
cat	-10.6285
▁tension	-10.6287
▁spiritual	-10.6288
len	-10.6294
▁phrase	-10.6301
sky	-10.6309
▁apartment	-10.6311
▁tables	-10.6312
▁rural	-10.6319
▁valuable	-10.6322
▁structural	-10.6322
▁wound	-10.6325
▁hire	-10.6326
▁intensity	-10.6327
▁sci	-10.6328
▁titles	-10.6335
from	-10.6335
▁nutritional	-10.6341
▁fellow	-10.6345
▁trends	-10.6345
▁meta	-10.6347
▁meter	-10.6351
▁possession	-10.6351
▁kennedy	-10.6352
▁heal	-10.6356
56	-10.6358
▁characterized	-10.6358
▁tuition	-10.636
▁residence	-10.6361
88	-10.6364
▁victim	-10.6365
▁alert	-10.6371
▁hourly	-10.6371
▁powered	-10.6371
▁stones	-10.6372
▁allergy	-10.6374
hat	-10.6375
▁cam	-10.6377
▁hydro	-10.6377
▁troops	-10.6377
▁strip	-10.6379
▁elevation	-10.6381
▁dioxide	-10.6381
▁alexander	-10.6383
▁favor	-10.6386
▁egypt	-10.6392
total	-10.6392
war	-10.6393
▁galaxy	-10.6393
▁programming	-10.6398
▁reveal	-10.6401
ative	-10.6403
▁drawing	-10.6406
▁medicines	-10.6407
▁lies	-10.6408
▁roughly	-10.641
▁emily	-10.6411
▁trigger	-10.6411
▁diego	-10.6414
▁outstanding	-10.6415
▁equity	-10.6422
noun	-10.6428
▁detect	-10.643
▁sad	-10.6431
▁anyway	-10.6433
▁hypo	-10.6434
▁generated	-10.6434
▁360	-10.6436
fish	-10.6442
▁administered	-10.6456
▁url	-10.6459
▁contributor	-10.6461
▁aids	-10.6461
▁lane	-10.6462
▁crash	-10.6462
▁prize	-10.6469
▁iowa	-10.6469
▁adams	-10.6471
96	-10.6471
▁possibility	-10.6473
▁immigration	-10.6482
03	-10.6482
▁strain	-10.6484
▁horses	-10.6491
▁arrest	-10.6497
▁conservative	-10.6497
▁arthur	-10.6498
▁argue	-10.6498
▁baking	-10.6499
▁potatoes	-10.65
▁involve	-10.6501
http	-10.6502
▁telling	-10.6505
▁adequate	-10.6506
▁desired	-10.6507
▁agricultural	-10.6508
▁committed	-10.6511
▁towns	-10.6512
▁lymph	-10.6519
▁corps	-10.6527
▁consult	-10.6527
▁span	-10.6532
▁dropped	-10.6538
▁trauma	-10.6539
▁legislation	-10.6539
▁cuts	-10.6539
▁bonus	-10.6545
▁lifetime	-10.655
▁reform	-10.6553
▁refund	-10.6553
78	-10.6553
▁tablet	-10.6555
▁protocol	-10.6556
▁imaging	-10.6559
▁championship	-10.6559
▁1940	-10.6563
▁lip	-10.6563
▁chamber	-10.6564
▁conversation	-10.657
▁wildlife	-10.6574
▁supposed	-10.6575
▁sole	-10.6583
▁−	-10.6592
▁joints	-10.6594
▁driven	-10.6594
▁matters	-10.6596
73	-10.6599
▁sal	-10.6601
▁uniform	-10.6605
▁generic	-10.6613
▁totally	-10.6617
▁archive	-10.6622
▁channels	-10.6623
▁conclusion	-10.6625
▁stretch	-10.6627
▁texture	-10.6629
▁trace	-10.6633
col	-10.6636
▁franklin	-10.6636
▁granted	-10.6639
▁vietnam	-10.664
▁rising	-10.6645
▁destroy	-10.6649
▁handling	-10.6652
▁grill	-10.6654
pan	-10.6655
▁1920	-10.6656
58	-10.666
tum	-10.6663
▁icon	-10.6663
▁1930	-10.6663
▁bon	-10.6668
▁printed	-10.6671
▁aspect	-10.6672
▁rick	-10.6673
▁grace	-10.6674
ston	-10.6676
▁colored	-10.6676
▁hunt	-10.6679
▁essentially	-10.6681
▁deposits	-10.6685
▁cb	-10.6685
▁alive	-10.6693
▁destroyed	-10.6693
▁substitute	-10.6694
des	-10.6696
▁maintained	-10.6698
▁choosing	-10.6701
▁dried	-10.6702
post	-10.6706
▁geo	-10.6707
▁spell	-10.671
▁amy	-10.6711
▁signature	-10.6713
▁spectrum	-10.6716
▁dealing	-10.6734
47	-10.6737
▁wh	-10.6743
king	-10.6747
ura	-10.6747
▁dave	-10.675
85	-10.675
▁vessel	-10.6751
▁accord	-10.6752
▁rail	-10.6758
▁victory	-10.6759
▁deer	-10.6761
▁accuracy	-10.6762
▁permission	-10.6767
▁nail	-10.6767
▁computers	-10.677
▁effectiveness	-10.6771
▁stronger	-10.6775
▁anderson	-10.6777
▁variation	-10.6781
▁till	-10.6782
▁equation	-10.6783
▁ranked	-10.6784
▁serum	-10.6786
▁rat	-10.6787
▁lesson	-10.6788
▁gal	-10.6789
▁veterans	-10.6799
▁gym	-10.6807
▁chrome	-10.6811
▁confused	-10.6819
▁guidance	-10.6821
▁119	-10.6821
▁axis	-10.6824
▁consent	-10.6828
▁theme	-10.6829
▁saved	-10.683
list	-10.6831
▁guests	-10.6832
rol	-10.6835
▁extend	-10.6836
▁111	-10.6837
▁belong	-10.684
▁oils	-10.6843
▁der	-10.6843
▁absolute	-10.6847
over	-10.685
▁funny	-10.6851
kar	-10.6855
▁qualify	-10.6863
▁exists	-10.6867
▁conventional	-10.6869
▁cow	-10.6875
▁integrated	-10.6876
▁representatives	-10.6882
▁edited	-10.6885
▁cons	-10.689
▁managing	-10.689
▁suicide	-10.6895
▁112	-10.6896
▁rubber	-10.6897
▁keeps	-10.69
ign	-10.69
▁premiere	-10.6902
84	-10.6905
▁carbs	-10.6908
▁candidates	-10.691
▁viral	-10.6911
▁surprise	-10.6911
▁verified	-10.6913
▁struggle	-10.6915
▁sarah	-10.6915
▁crazy	-10.6919
set	-10.6922
▁1967	-10.6922
▁broke	-10.6924
▁jefferson	-10.6929
▁backup	-10.6931
▁fault	-10.6932
▁1965	-10.6932
▁bow	-10.6934
▁shore	-10.6936
fer	-10.694
▁jordan	-10.6942
▁jane	-10.6948
▁arrested	-10.695
▁109	-10.6954
▁rough	-10.6954
▁molecule	-10.6956
▁covering	-10.6959
lum	-10.696
opposed	-10.696
▁demonstrate	-10.6963
▁determining	-10.6963
▁extract	-10.697
▁anne	-10.6973
▁dairy	-10.6975
▁lateral	-10.6979
▁caffeine	-10.6982
▁fin	-10.6983
▁winds	-10.6984
▁angel	-10.6985
▁brings	-10.6986
▁optional	-10.6986
non	-10.6987
▁commander	-10.6988
ə	-10.6992
▁concert	-10.6992
▁sleeping	-10.6993
▁carpet	-10.6994
▁linear	-10.6995
▁romantic	-10.6995
▁pronunciation	-10.6996
▁solo	-10.6997
▁rolling	-10.7001
▁publications	-10.7009
▁authors	-10.7009
▁concepts	-10.7012
▁bedroom	-10.7013
additionally	-10.7015
▁circulation	-10.7017
▁lens	-10.7019
▁chase	-10.702
▁gate	-10.702
▁recognition	-10.702
▁surgeon	-10.7022
▁adj	-10.7026
▁expense	-10.7027
▁glands	-10.7028
mal	-10.7029
▁delta	-10.7036
▁folder	-10.7036
▁pocket	-10.7041
▁tristan	-10.7043
▁gang	-10.7043
▁styles	-10.7047
seemed	-10.7047
▁physicians	-10.7051
▁dynamic	-10.7052
▁tele	-10.7053
▁farle	-10.7053
▁ease	-10.7054
▁browse	-10.7056
▁austin	-10.7062
▁bump	-10.7063
▁128	-10.7064
▁centuries	-10.7064
▁defeat	-10.7064
par	-10.7064
▁liberty	-10.7066
photos	-10.7071
▁rep	-10.7071
rum	-10.7073
▁adventure	-10.7074
▁chat	-10.7078
state	-10.7079
▁tire	-10.7089
▁bathroom	-10.7089
▁retired	-10.7099
▁1964	-10.71
▁recover	-10.7105
▁forming	-10.711
▁gl	-10.7111
▁networks	-10.7116
▁jason	-10.7116
yer	-10.7118
▁108	-10.712
▁serial	-10.7122
▁correctly	-10.7126
▁neutral	-10.7127
▁meters	-10.7131
▁contracts	-10.7131
▁pizza	-10.7135
▁continuing	-10.7137
lot	-10.7138
▁presentation	-10.7139
▁operated	-10.7145
▁measuring	-10.7146
▁winner	-10.7149
▁samples	-10.7149
▁bars	-10.7151
▁tony	-10.7153
▁doors	-10.7154
▁penalty	-10.7155
▁cleveland	-10.7158
▁bla	-10.716
▁makeup	-10.7164
▁trim	-10.7164
▁polish	-10.7172
▁trend	-10.718
▁gro	-10.718
▁prominent	-10.7182
▁launched	-10.7182
▁asthma	-10.7188
▁attempts	-10.7191
▁southwest	-10.7192
▁ghost	-10.7193
▁province	-10.7193
▁fatal	-10.7194
▁gram	-10.7195
▁taught	-10.7196
▁bend	-10.7201
▁participants	-10.7205
▁nominated	-10.7206
▁celebrate	-10.7206
▁flexible	-10.7206
▁consideration	-10.7208
▁knows	-10.721
▁ju	-10.7211
▁ownership	-10.7212
bu	-10.7215
77	-10.722
room	-10.7222
▁restore	-10.7223
▁jacket	-10.7224
▁everyday	-10.7228
▁gut	-10.7231
▁franchise	-10.7239
▁vegetable	-10.7239
▁adjective	-10.7243
▁furniture	-10.7253
▁cellular	-10.7255
click	-10.7255
▁viewed	-10.7256
▁pmc	-10.7259
▁mathematics	-10.726
▁russell	-10.726
▁ethnic	-10.7262
▁instruments	-10.7262
▁receptor	-10.7266
▁hispanic	-10.7268
▁creates	-10.7269
▁injured	-10.7271
▁router	-10.7272
▁diversity	-10.7272
▁unemployment	-10.7275
▁relieve	-10.7275
▁scheduled	-10.7276
▁garage	-10.7277
▁toilet	-10.7277
voters	-10.7277
▁anemia	-10.7278
▁copies	-10.7278
▁belief	-10.728
▁constantly	-10.7286
van	-10.7286
▁arrival	-10.7291
▁joy	-10.7294
▁consequences	-10.73
▁ji	-10.73
work	-10.7302
▁mayor	-10.7306
▁brush	-10.7307
▁commerce	-10.7311
▁pra	-10.7315
▁fibers	-10.7315
▁protective	-10.7317
▁sore	-10.7318
▁writers	-10.7321
▁awesome	-10.7328
▁atoms	-10.7338
▁clin	-10.7338
▁separated	-10.7343
▁northwest	-10.7343
▁cardiovascular	-10.7343
▁facing	-10.7344
▁static	-10.7344
▁heavily	-10.7349
▁contractor	-10.735
▁asset	-10.7354
00	-10.7354
ram	-10.7356
▁variations	-10.7362
▁passenger	-10.7362
▁keyboard	-10.7366
whenever	-10.7369
▁obviously	-10.7371
▁entering	-10.7373
▁bin	-10.7381
▁evaluate	-10.7396
▁howard	-10.74
▁delete	-10.7408
▁apparently	-10.7409
▁workout	-10.741
log	-10.7411
▁slide	-10.7412
▁documentation	-10.7418
▁wise	-10.7418
featuring	-10.7418
▁foster	-10.7423
▁checking	-10.7423
dal	-10.7425
▁mall	-10.7426
▁maintaining	-10.743
▁geography	-10.7432
▁nest	-10.7433
▁designer	-10.7435
▁fracture	-10.7438
1⁄2	-10.744
▁ira	-10.7441
▁readers	-10.7441
▁outcome	-10.7442
▁anterior	-10.7444
▁750	-10.7448
▁nitrogen	-10.7449
▁willing	-10.7449
▁vinegar	-10.7453
▁135	-10.7456
▁segment	-10.7457
▁pulse	-10.7457
▁characteristic	-10.7461
▁curve	-10.7462
▁remedies	-10.7465
▁brazil	-10.7465
▁fiction	-10.747
▁treaty	-10.7474
▁desktop	-10.7507
▁drawn	-10.751
▁strongly	-10.7515
key	-10.7517
▁mercury	-10.7517
▁challenges	-10.7521
▁harbor	-10.7521
▁patch	-10.7522
▁enemy	-10.7523
▁cre	-10.7527
▁beneficial	-10.7528
▁speaker	-10.753
▁170	-10.7534
▁operator	-10.7541
▁electron	-10.7541
▁intense	-10.7554
▁framework	-10.7554
▁responses	-10.7555
light	-10.7571
▁cbs	-10.7572
▁cloudy	-10.7572
pen	-10.7573
▁nerves	-10.7573
▁kate	-10.7575
▁dakota	-10.7578
▁mel	-10.7581
▁relation	-10.7581
▁che	-10.7581
▁pets	-10.7583
▁artificial	-10.7585
▁implementation	-10.7589
▁123	-10.7594
▁hub	-10.7597
▁connections	-10.7598
▁variables	-10.7599
▁gp	-10.76
▁delay	-10.7601
▁citations	-10.7602
▁classroom	-10.7606
▁theater	-10.7615
▁signals	-10.7616
▁shut	-10.7616
▁facial	-10.7617
▁raising	-10.7618
pin	-10.762
▁que	-10.762
▁matthew	-10.7621
▁infant	-10.7621
▁addiction	-10.7621
ral	-10.7623
population	-10.7626
▁teen	-10.7627
▁rescue	-10.763
▁forums	-10.7633
▁busy	-10.7634
▁requested	-10.7637
▁electrons	-10.7637
▁incorporated	-10.7637
▁nasal	-10.7637
reply	-10.7639
▁bringing	-10.7641
▁gum	-10.7645
▁gradually	-10.7651
▁arise	-10.7654
95	-10.7654
▁designs	-10.7655
▁poisoning	-10.7657
▁varieties	-10.7657
▁detroit	-10.7663
▁sen	-10.7666
sch	-10.7669
▁forever	-10.767
▁moore	-10.7671
▁1016	-10.7672
▁authorized	-10.7672
▁admission	-10.7676
▁mature	-10.768
▁anna	-10.7686
▁occurring	-10.7687
▁transactions	-10.7688
▁newly	-10.7691
▁billboard	-10.7693
▁champion	-10.7693
▁caribbean	-10.7694
▁shake	-10.7696
▁victims	-10.7698
▁phil	-10.7704
uz	-10.7705
▁populations	-10.7708
▁hepatitis	-10.7713
▁gar	-10.7721
▁globe	-10.7722
▁glad	-10.7724
▁completion	-10.7727
▁universities	-10.7731
not	-10.7734
▁rap	-10.7746
▁inspection	-10.7751
book	-10.7753
▁pension	-10.7756
▁incidence	-10.7759
bury	-10.7762
▁similarly	-10.7764
▁absorption	-10.7766
▁racial	-10.7768
▁alter	-10.7768
07	-10.7772
▁holes	-10.7773
▁mat	-10.7778
▁awareness	-10.7779
▁proven	-10.7779
▁ingredient	-10.778
▁measurements	-10.7782
▁managers	-10.7784
▁buyer	-10.779
▁prostate	-10.78
some	-10.78
▁actors	-10.7807
▁casual	-10.7809
▁gr	-10.781
resulted	-10.7818
▁114	-10.782
▁officially	-10.7823
▁potato	-10.7829
▁vein	-10.7831
▁mega	-10.7834
illa	-10.7835
▁ankle	-10.7838
▁lakes	-10.7839
▁bills	-10.784
57	-10.784
▁elevated	-10.784
▁posterior	-10.7841
μ	-10.7841
▁racing	-10.7843
▁danger	-10.7843
▁jam	-10.7844
▁processed	-10.7845
67	-10.7845
▁dining	-10.7847
▁snake	-10.7851
▁emperor	-10.7851
▁sperm	-10.7855
▁affordable	-10.7855
▁objective	-10.7857
▁consist	-10.786
▁mag	-10.7864
sed	-10.7869
▁walker	-10.7873
▁cooling	-10.7873
▁confusion	-10.7877
▁sap	-10.7879
▁harris	-10.7881
entitled	-10.7885
▁newspaper	-10.7885
▁nuts	-10.7892
▁euro	-10.7893
▁papers	-10.7896
gate	-10.7896
▁arrow	-10.7898
harcourt	-10.7902
▁121	-10.7905
▁formerly	-10.7912
▁displays	-10.7912
▁aging	-10.7915
▁noticed	-10.7917
▁vet	-10.7923
▁bands	-10.7935
bro	-10.7936
▁zinc	-10.7937
▁bruce	-10.7937
▁118	-10.7938
▁defendant	-10.7938
▁laptop	-10.7949
▁login	-10.795
relating	-10.7952
▁peripheral	-10.7957
▁displayed	-10.7962
▁statistical	-10.7964
▁chip	-10.7966
▁armed	-10.7966
▁1966	-10.797
▁liberal	-10.7973
▁reputation	-10.7979
lies	-10.798
75	-10.7981
▁seriously	-10.7982
▁preview	-10.7986
▁lan	-10.7993
▁μ	-10.7994
▁113	-10.7997
▁jar	-10.7999
▁missed	-10.8001
ju	-10.8002
bre	-10.8002
63	-10.8005
▁soda	-10.8008
▁literally	-10.8009
▁onset	-10.8011
▁wayne	-10.8014
▁afternoon	-10.8014
▁arrive	-10.8014
▁newsletter	-10.8018
▁restrictions	-10.8018
▁intervention	-10.8019
ˈ	-10.8019
▁plates	-10.8025
▁commitment	-10.8028
▁meets	-10.8032
▁shorter	-10.8034
▁atom	-10.8039
▁sight	-10.804
▁den	-10.8041
▁colleges	-10.8042
▁tha	-10.8043
▁needle	-10.8043
▁dean	-10.8043
▁nasa	-10.8046
▁afford	-10.8049
▁pearl	-10.805
▁cape	-10.8053
▁slavery	-10.8055
▁interpretation	-10.8057
▁sweat	-10.8063
▁robin	-10.8072
▁tumors	-10.8077
▁carl	-10.8078
▁jon	-10.8078
▁distributed	-10.8082
▁appointed	-10.8085
▁albert	-10.8088
▁relevance	-10.8088
▁awarded	-10.8088
▁combine	-10.8091
▁acquisition	-10.8095
▁entrance	-10.8096
▁brake	-10.8097
▁citizen	-10.8099
▁dip	-10.8104
▁sunny	-10.8108
▁farmers	-10.8108
▁courtesy	-10.8108
▁hang	-10.8112
▁epi	-10.8115
mont	-10.8116
ere	-10.8116
▁placebo	-10.8116
▁crust	-10.8117
▁lawrence	-10.8122
▁obesity	-10.8123
▁constipation	-10.8124
▁toronto	-10.8124
▁provisions	-10.8125
▁concentrations	-10.8127
▁fer	-10.8128
▁ali	-10.8129
▁alliance	-10.813
▁addresses	-10.8131
▁corp	-10.8132
▁spider	-10.8137
▁117	-10.814
▁fingers	-10.8142
bri	-10.8143
▁clause	-10.8145
▁luxury	-10.8147
▁graph	-10.8148
▁orbit	-10.8149
met	-10.815
▁alan	-10.8154
▁examine	-10.8157
▁strange	-10.8158
▁quiz	-10.816
▁maria	-10.8161
▁connecticut	-10.8162
▁dies	-10.8162
▁korean	-10.8163
▁lighting	-10.8164
flaunt	-10.8167
▁junior	-10.8169
▁metabolic	-10.8174
▁theories	-10.8175
▁gained	-10.8178
▁bomb	-10.8178
▁mirror	-10.8181
▁communicate	-10.8183
▁nucleus	-10.8186
▁var	-10.8187
▁aim	-10.8189
▁wax	-10.8189
▁advantages	-10.819
▁chan	-10.8193
▁hello	-10.8193
▁passage	-10.8198
▁preventing	-10.8199
▁interactive	-10.82
▁sensor	-10.8201
▁aside	-10.8203
▁tender	-10.8206
▁absorb	-10.8206
▁palace	-10.8214
▁ceiling	-10.8215
vis	-10.8221
▁def	-10.8224
▁spoken	-10.8225
▁1963	-10.8225
▁uv	-10.8228
▁mit	-10.8229
▁gulf	-10.8235
▁disabled	-10.8237
▁wrap	-10.8239
▁visiting	-10.824
▁ears	-10.8246
▁sensitivity	-10.8249
▁pros	-10.825
▁bearing	-10.8251
lis	-10.8251
▁instant	-10.8251
▁delicious	-10.8259
▁zoo	-10.8259
▁dealer	-10.8261
▁navigation	-10.8263
gal	-10.8263
▁strategic	-10.8266
▁expanded	-10.8266
▁returning	-10.8266
▁suffered	-10.8271
▁madison	-10.8275
bed	-10.8278
▁127	-10.8279
aki	-10.8281
zy	-10.8281
▁utah	-10.8282
▁arabic	-10.8284
▁beds	-10.8284
▁poison	-10.8288
▁freeze	-10.829
ple	-10.8291
▁synthesis	-10.8291
▁rub	-10.8296
▁puts	-10.8301
▁somewhere	-10.8305
bit	-10.8307
▁opera	-10.8308
▁filling	-10.8308
nearest	-10.8312
59	-10.8315
tom	-10.8319
▁mol	-10.8321
▁tear	-10.8322
▁blade	-10.8323
▁dominant	-10.8326
▁pur	-10.8329
▁increasingly	-10.833
▁printing	-10.833
▁suspension	-10.8333
win	-10.8341
worth	-10.8343
▁complicated	-10.8344
▁tobacco	-10.8345
▁geographic	-10.8346
ear	-10.8347
bert	-10.8348
▁recreation	-10.8348
▁flood	-10.8348
▁hook	-10.8357
▁slave	-10.8358
▁progressive	-10.8359
▁webster	-10.8359
ack	-10.8361
▁specialized	-10.8362
▁investors	-10.8363
▁alternate	-10.8364
▁massage	-10.8365
▁fraud	-10.8366
reaches	-10.8375
▁stack	-10.8378
▁scotland	-10.8379
ware	-10.838
▁cited	-10.8386
▁funeral	-10.8387
▁essay	-10.8392
▁1945	-10.8392
▁doc	-10.8393
▁philip	-10.8394
▁determination	-10.8395
▁val	-10.8395
▁pic	-10.8396
▁identical	-10.8397
qua	-10.8397
▁transit	-10.8398
ark	-10.8399
▁understood	-10.84
converted	-10.8401
▁worn	-10.8403
▁diagram	-10.8406
▁116	-10.8409
mel	-10.8409
▁wings	-10.8413
▁tra	-10.8413
▁personally	-10.8415
▁landing	-10.8418
▁rewards	-10.8418
▁reduces	-10.8423
▁engines	-10.8425
▁sensation	-10.8425
▁duke	-10.8431
▁substantial	-10.8433
ked	-10.8434
▁bl	-10.8436
▁incredible	-10.8436
▁banking	-10.8438
▁surfaces	-10.8439
▁informed	-10.8441
▁iraq	-10.8441
▁setup	-10.8447
▁hurricane	-10.8447
eal	-10.8447
▁arteries	-10.845
▁consume	-10.845
▁1900	-10.845
▁francis	-10.8453
▁hunter	-10.8457
▁reaching	-10.8461
▁charter	-10.8464
▁sheriff	-10.847
▁routing	-10.8471
▁wins	-10.8473
▁traveling	-10.8474
68	-10.848
▁printer	-10.8485
▁enjoyed	-10.8486
▁advisor	-10.8488
▁bug	-10.849
▁mod	-10.8491
▁heaven	-10.8492
▁harmful	-10.8493
▁therapeutic	-10.8493
▁longest	-10.8495
▁posting	-10.8497
▁speakers	-10.8497
▁rings	-10.8498
▁southeast	-10.8506
▁bite	-10.8508
▁lawn	-10.851
▁transferred	-10.8513
▁179	-10.8516
▁repeated	-10.8517
▁eagle	-10.8517
▁triple	-10.8519
▁quit	-10.8521
▁suddenly	-10.8521
▁dozen	-10.8522
▁elderly	-10.8533
▁pulled	-10.8534
▁christopher	-10.8537
▁compression	-10.8539
▁anthony	-10.854
▁continental	-10.854
▁soup	-10.8547
lock	-10.8547
▁adjacent	-10.8551
▁salmon	-10.8553
▁assess	-10.8553
▁samsung	-10.8557
▁cheaper	-10.8557
▁retain	-10.8559
▁improving	-10.8561
▁guides	-10.8563
refers	-10.8565
▁weapon	-10.8568
66	-10.8573
▁phoenix	-10.8573
▁hal	-10.8575
▁220	-10.8576
▁cups	-10.8578
▁railway	-10.8582
phone	-10.8584
▁lisa	-10.8587
▁boards	-10.8588
▁quest	-10.8591
▁limitations	-10.8592
▁disclosure	-10.8594
▁shadow	-10.8595
▁comic	-10.8596
▁specialty	-10.8598
▁scenes	-10.8602
▁horn	-10.8606
▁tile	-10.8611
▁symbols	-10.8619
▁stability	-10.862
▁triangle	-10.8622
like	-10.8623
▁mystery	-10.8633
▁talent	-10.8633
read	-10.8635
▁tournament	-10.8635
▁fundamental	-10.8637
▁receptors	-10.864
▁ranges	-10.8641
▁occupied	-10.8642
▁resume	-10.8643
▁authorities	-10.8645
▁craft	-10.8648
▁hamilton	-10.865
▁pinterest	-10.8652
▁perfectly	-10.8653
▁175	-10.8654
▁240	-10.8655
▁receives	-10.8658
▁bal	-10.8662
▁breakdown	-10.8663
▁rib	-10.8668
late	-10.8678
▁proud	-10.868
▁engaged	-10.8682
▁divide	-10.8683
▁outcomes	-10.8684
▁api	-10.8684
▁grid	-10.8685
▁losses	-10.869
▁metropolitan	-10.8696
▁prompt	-10.87
▁reg	-10.87
▁nevada	-10.8701
▁mining	-10.8703
▁fleet	-10.8707
▁ongoing	-10.871
▁scheme	-10.8716
▁imdb	-10.8717
▁thumb	-10.8717
cast	-10.8724
kel	-10.8728
▁thermal	-10.8728
▁synthetic	-10.8737
▁jose	-10.8738
▁fried	-10.8745
▁hol	-10.8745
▁blow	-10.8747
num	-10.8752
▁promise	-10.8754
▁react	-10.8755
▁tracking	-10.8759
rus	-10.8759
▁priority	-10.8762
▁indoor	-10.8767
▁acne	-10.8767
▁dimensions	-10.8771
▁virgin	-10.8774
▁von	-10.8778
▁sized	-10.8779
▁bor	-10.8781
▁mechanisms	-10.8783
▁resolve	-10.8787
▁drag	-10.8789
▁grove	-10.879
▁cur	-10.8794
▁spoke	-10.8796
▁visits	-10.8796
▁boss	-10.88
▁legacy	-10.8816
▁besides	-10.8818
▁129	-10.8819
▁origins	-10.8822
▁ordinary	-10.8828
▁coin	-10.8828
▁hypertension	-10.883
▁batteries	-10.8834
▁abs	-10.8835
▁concerning	-10.8836
▁trick	-10.8836
▁edt	-10.8836
▁detection	-10.8836
▁instruction	-10.8841
▁imperial	-10.8842
▁mri	-10.8844
▁cabinet	-10.8845
▁bas	-10.8851
▁mas	-10.8852
▁infrastructure	-10.8852
▁manufactured	-10.8854
▁cooper	-10.8855
▁soy	-10.8856
▁amid	-10.8857
▁arab	-10.8858
▁candy	-10.886
▁kick	-10.886
▁experimental	-10.8862
▁yards	-10.8869
▁mer	-10.8869
▁demonstrated	-10.8873
▁pole	-10.8879
▁dreams	-10.8879
▁stuck	-10.8881
▁naval	-10.8883
▁heading	-10.8888
mic	-10.8895
ification	-10.8896
▁spotted	-10.8901
ified	-10.8903
▁slideshow	-10.8909
▁sta	-10.8912
▁ontario	-10.8914
▁vapor	-10.8916
▁cattle	-10.8923
▁intestine	-10.8925
isation	-10.8926
▁refrigerator	-10.8927
▁calm	-10.893
▁sink	-10.8932
▁approaches	-10.8935
▁import	-10.8939
▁jews	-10.894
▁horizontal	-10.8941
▁dj	-10.8942
▁1961	-10.8946
rine	-10.8947
▁dev	-10.8951
▁carbohydrates	-10.8953
▁chances	-10.8955
▁regard	-10.8956
wan	-10.8959
▁constitutional	-10.8961
▁ultrasound	-10.8962
▁145	-10.8964
▁harder	-10.8977
▁124	-10.8977
▁rays	-10.8978
▁constructed	-10.8983
▁destruction	-10.8983
▁vaginal	-10.8986
amine	-10.8986
▁matrix	-10.8988
lay	-10.899
▁cab	-10.8992
▁brick	-10.8995
▁pollution	-10.8995
▁corresponding	-10.8996
▁atomic	-10.9
▁habitat	-10.9004
▁coastal	-10.9009
cor	-10.9013
▁greece	-10.9022
mos	-10.9023
▁behavioral	-10.9024
▁fra	-10.9025
▁acceptable	-10.9026
▁susan	-10.9027
▁charlotte	-10.9029
▁cultures	-10.9029
▁cas	-10.9033
▁parliament	-10.9035
▁requiring	-10.9037
▁roads	-10.9037
▁representation	-10.9038
▁utilities	-10.9041
▁walter	-10.9042
▁accessible	-10.9043
cer	-10.9046
▁rush	-10.9047
▁trap	-10.9048
▁kings	-10.9052
ration	-10.9057
▁rhythm	-10.9061
old	-10.9063
▁easter	-10.9063
▁dia	-10.9073
▁companion	-10.9081
▁translations	-10.9082
▁releases	-10.9084
ope	-10.9093
▁tunes	-10.9099
▁jazz	-10.9102
▁margin	-10.9102
▁jurisdiction	-10.9105
▁450	-10.9106
▁cloth	-10.911
▁mask	-10.9112
▁holidays	-10.9113
pic	-10.9114
rick	-10.9114
▁tennis	-10.9116
▁viruses	-10.9116
▁bun	-10.9118
▁mate	-10.9121
▁precautions	-10.9126
▁suspect	-10.913
▁municipal	-10.9131
zar	-10.9134
▁165	-10.9135
▁publisher	-10.914
▁lion	-10.9143
▁php	-10.9144
▁dishes	-10.9148
▁violation	-10.9149
▁diverse	-10.915
▁securities	-10.9152
▁wore	-10.9154
▁1962	-10.9156
▁engage	-10.9158
▁pace	-10.9163
▁verify	-10.9164
▁refuse	-10.9164
▁jimmy	-10.9166
▁bid	-10.9168
▁swift	-10.917
▁infants	-10.9171
▁introduce	-10.9172
▁significance	-10.9173
▁warnings	-10.9176
rid	-10.9177
▁kong	-10.9178
▁annually	-10.9179
▁johnny	-10.9179
▁netflix	-10.9181
▁vintage	-10.9183
▁fake	-10.9183
▁yoga	-10.9192
▁demo	-10.9196
▁insects	-10.9197
tation	-10.9199
▁compete	-10.92
▁rivers	-10.9205
▁audit	-10.9207
▁breeding	-10.9209
▁orlando	-10.921
▁roast	-10.9211
▁cancel	-10.9211
▁veins	-10.9212
▁metals	-10.9214
▁laid	-10.922
▁bags	-10.9222
▁interact	-10.9222
▁sensory	-10.9223
▁celebrity	-10.9224
▁gary	-10.9225
▁brad	-10.9226
▁fence	-10.9227
tur	-10.9231
▁cemetery	-10.9233
▁cylinder	-10.9233
▁sur	-10.9237
▁vascular	-10.924
posted	-10.9241
▁sydney	-10.9242
ical	-10.9244
▁labour	-10.9244
▁bri	-10.9247
▁aggressive	-10.9249
▁module	-10.9249
▁earliest	-10.9249
▁intermediate	-10.9252
▁vacuum	-10.9253
▁cho	-10.9255
▁knight	-10.9255
▁node	-10.9257
▁htm	-10.9258
▁fred	-10.9264
▁declaration	-10.9264
▁yahoo	-10.9266
▁esp	-10.927
▁purchasing	-10.927
▁towers	-10.9277
▁commons	-10.9278
▁chef	-10.9279
▁sought	-10.9283
▁barrier	-10.9288
▁stunning	-10.9292
▁engineers	-10.9294
▁matching	-10.9295
▁compact	-10.9296
▁cavity	-10.9296
nik	-10.9304
▁allergies	-10.9304
▁poll	-10.9306
▁shoe	-10.9318
erman	-10.9322
▁happening	-10.9323
▁arkansas	-10.9325
▁tries	-10.9333
▁berlin	-10.9333
▁chose	-10.9334
▁apparent	-10.9338
▁opt	-10.9338
ably	-10.9339
▁influenced	-10.934
▁sol	-10.934
▁antonio	-10.9341
▁lucky	-10.9341
▁implement	-10.9343
▁anniversary	-10.9348
▁joins	-10.9349
sburg	-10.9349
▁bulk	-10.9357
▁killer	-10.9361
▁149	-10.9362
▁burns	-10.9371
▁wondering	-10.9376
accompanied	-10.9381
ches	-10.9383
▁jewelry	-10.9384
most	-10.9388
▁dense	-10.9392
ranging	-10.9393
▁critics	-10.9393
▁shield	-10.9394
▁desk	-10.9394
▁seizures	-10.9396
▁refused	-10.9397
▁restricted	-10.94
▁boxes	-10.9402
▁engagement	-10.9402
ible	-10.9412
▁advise	-10.9418
▁cervical	-10.9419
▁microwave	-10.9419
▁elsewhere	-10.9421
box	-10.9423
▁meghan	-10.9425
▁broadway	-10.9425
▁administrator	-10.9427
ich	-10.9427
ged	-10.9428
▁organism	-10.9428
▁websites	-10.9431
▁kb	-10.9431
▁exempt	-10.9431
▁paragraph	-10.9434
▁invasion	-10.9438
▁roosevelt	-10.9439
▁caution	-10.9444
▁egyptian	-10.9444
▁provision	-10.9445
▁ceremony	-10.9445
mus	-10.9448
▁dig	-10.945
▁pursue	-10.9451
▁canyon	-10.9452
▁harvard	-10.9457
bol	-10.946
▁sentences	-10.9466
▁nurses	-10.9467
▁shade	-10.9469
▁timing	-10.9472
▁pediatric	-10.9472
▁baker	-10.9476
▁elite	-10.9476
sending	-10.9486
stein	-10.9489
▁tub	-10.9491
▁jaw	-10.9492
cus	-10.9492
▁timeline	-10.9498
uri	-10.9498
▁export	-10.9499
▁faculty	-10.9508
▁lessons	-10.9509
iva	-10.951
▁constitute	-10.9513
▁legislature	-10.9514
▁integration	-10.9514
▁indians	-10.9516
▁estrogen	-10.9518
▁preparing	-10.9523
▁impairment	-10.9525
▁nails	-10.9525
▁foam	-10.9525
▁separation	-10.9526
▁captured	-10.9526
▁auction	-10.9526
▁gin	-10.9528
fire	-10.9529
▁stats	-10.9529
87	-10.9534
▁159	-10.9536
▁pneumonia	-10.9537
▁wales	-10.9538
▁tied	-10.9538
▁brooklyn	-10.9538
alongside	-10.9539
▁grains	-10.954
▁smile	-10.9541
▁pants	-10.9544
▁lat	-10.9546
▁helen	-10.9549
▁orleans	-10.9549
mark	-10.9551
▁slight	-10.9552
point	-10.9556
▁denver	-10.956
ova	-10.9561
▁intellectual	-10.9565
ray	-10.9565
▁nodes	-10.9567
▁soccer	-10.9568
▁wheels	-10.9571
▁revised	-10.9575
inger	-10.9586
ante	-10.9587
▁carries	-10.9588
▁airline	-10.959
▁crowd	-10.9591
▁carter	-10.9592
▁wright	-10.9592
born	-10.9593
▁pakistan	-10.9594
▁technician	-10.9595
▁invented	-10.9597
▁stewart	-10.96
▁volunteer	-10.96
▁mortality	-10.9602
▁grammar	-10.9604
▁tracks	-10.9606
▁tunnel	-10.9607
▁archives	-10.9608
▁barbara	-10.9609
name	-10.9611
▁offset	-10.9612
▁odd	-10.9623
▁parameters	-10.9625
▁licenses	-10.9626
▁discomfort	-10.9628
▁bold	-10.9628
▁headaches	-10.9629
▁roger	-10.963
▁pharmacy	-10.9631
▁digit	-10.9635
partly	-10.9638
▁passengers	-10.964
▁complaint	-10.9642
▁baltimore	-10.9645
▁occupational	-10.9645
ington	-10.9645
▁faq	-10.9649
▁abilities	-10.9653
ants	-10.9655
▁plural	-10.9656
▁odor	-10.9656
▁keys	-10.9656
gram	-10.9656
▁slaves	-10.966
▁steven	-10.9661
▁126	-10.9661
▁marie	-10.9662
▁168	-10.9664
2000	-10.9666
▁colonial	-10.9669
▁oxide	-10.9669
▁tattoo	-10.9674
▁wrist	-10.9676
▁economics	-10.9677
▁harvest	-10.9679
▁numerology	-10.9682
▁beverly	-10.9689
▁macro	-10.9689
▁etymology	-10.9693
shortly	-10.9693
ique	-10.9695
▁tiger	-10.9695
▁specify	-10.9697
▁isolated	-10.9698
▁faced	-10.9698
type	-10.9703
▁buffalo	-10.9703
▁careers	-10.9703
▁pitch	-10.9707
▁disaster	-10.9709
▁violent	-10.971
▁blend	-10.971
▁lime	-10.9713
▁attended	-10.9715
stra	-10.9716
ever	-10.9717
picked	-10.9723
▁attract	-10.9728
▁vector	-10.9732
▁herbs	-10.974
▁gauge	-10.974
▁experiencing	-10.974
▁kan	-10.9741
▁permitted	-10.9747
▁promotion	-10.9748
▁tomatoes	-10.9748
▁accessories	-10.9749
▁severity	-10.975
▁inflation	-10.9755
▁placement	-10.9757
ulation	-10.9757
▁avg	-10.976
uma	-10.9761
▁regulatory	-10.9761
▁cry	-10.9765
▁beau	-10.9767
▁dysfunction	-10.9768
▁deadline	-10.9772
furthermore	-10.978
▁qui	-10.9782
▁155	-10.979
▁gallon	-10.979
▁hammer	-10.9792
▁zones	-10.9793
▁mice	-10.9794
▁pill	-10.9795
ami	-10.9795
▁oscar	-10.9798
500	-10.9802
▁yesterday	-10.9804
▁intra	-10.9805
▁crossing	-10.9806
▁animation	-10.9807
▁rotation	-10.9812
under	-10.9812
▁vocal	-10.9812
▁bro	-10.9812
▁luke	-10.9814
▁console	-10.9817
▁informal	-10.9818
▁occupation	-10.9818
▁athletes	-10.9818
▁sept	-10.982
▁minimal	-10.9822
▁blast	-10.9823
▁flip	-10.9827
▁turner	-10.9829
▁penn	-10.9829
▁loud	-10.9835
▁abdomen	-10.9835
▁beam	-10.9835
▁drill	-10.9838
▁mistake	-10.9838
▁exp	-10.9843
▁verification	-10.9844
run	-10.9849
▁logic	-10.9857
▁sac	-10.9858
▁portuguese	-10.9859
▁fcc	-10.9862
▁subscription	-10.9868
▁attempted	-10.987
▁adoption	-10.9871
▁delayed	-10.9878
▁proportion	-10.988
▁netherlands	-10.9881
▁paste	-10.9883
▁infectious	-10.9885
▁nap	-10.9885
▁pour	-10.9887
▁prep	-10.9892
▁underground	-10.9892
▁trunk	-10.9896
▁vent	-10.9897
▁nutrient	-10.9907
▁suggestions	-10.991
▁anchor	-10.991
▁fired	-10.9912
▁physically	-10.9912
▁spelling	-10.9913
lig	-10.9917
▁polar	-10.992
▁gordon	-10.992
▁romance	-10.9921
▁blu	-10.9921
▁ski	-10.9923
▁casino	-10.9926
▁lol	-10.9928
▁cra	-10.9929
▁minimize	-10.9931
▁masters	-10.9932
▁observation	-10.9933
▁shelter	-10.9936
uck	-10.9936
▁stir	-10.9937
▁legislative	-10.994
▁rainfall	-10.994
▁gra	-10.9946
▁condo	-10.9955
79	-10.9958
▁arrangement	-10.996
▁marshall	-10.9964
▁dramatic	-10.9965
▁nbc	-10.9966
▁cave	-10.9973
200	-10.9975
▁vin	-10.9987
▁float	-10.9987
▁mhz	-10.9994
gue	-11.0001
▁stops	-11.001
aries	-11.001
consisting	-11.0011
▁velocity	-11.0012
▁lesions	-11.0014
▁dancing	-11.0016
▁preserve	-11.0018
▁appetite	-11.002
responsibilities	-11.0021
▁duck	-11.0021
▁shops	-11.0023
▁threatening	-11.0027
▁attractive	-11.0032
▁monster	-11.0033
▁skip	-11.0034
▁systemic	-11.0036
▁pills	-11.0038
▁225	-11.0039
▁jury	-11.0041
▁yeah	-11.0042
▁enhanced	-11.0046
▁antibiotic	-11.0046
▁puppy	-11.0049
▁sunset	-11.0055
▁charlie	-11.0055
▁interval	-11.006
▁hebrew	-11.0061
▁tel	-11.0063
▁bears	-11.0064
▁1959	-11.007
▁samuel	-11.0074
▁xp	-11.0074
▁ounces	-11.0078
show	-11.0078
▁basin	-11.0079
▁appreciate	-11.0085
▁accused	-11.0086
▁testosterone	-11.0088
emia	-11.0089
▁fold	-11.0092
pol	-11.01
▁northeast	-11.0104
▁fantastic	-11.0108
bal	-11.011
lier	-11.0111
dine	-11.0112
▁rec	-11.0113
▁safely	-11.0118
▁seasonal	-11.0119
ates	-11.0122
▁£	-11.0125
gel	-11.0125
try	-11.0127
▁equally	-11.0129
▁mars	-11.0134
▁okay	-11.0135
▁medieval	-11.0135
▁layout	-11.0136
▁139	-11.0139
▁pride	-11.014
▁alien	-11.0141
ache	-11.0143
▁144	-11.0145
▁marvel	-11.0147
▁potter	-11.0151
▁scar	-11.0153
▁discrimination	-11.0154
▁senator	-11.0154
▁montana	-11.0155
▁judicial	-11.0158
▁virtually	-11.016
▁admitted	-11.0161
▁kidneys	-11.0162
▁medicaid	-11.0163
▁compatible	-11.0164
▁gardens	-11.0166
pur	-11.0174
▁glen	-11.0174
▁ward	-11.0175
▁firms	-11.0175
lus	-11.0176
▁execution	-11.0177
▁warren	-11.0181
▁adjustment	-11.0183
▁proposal	-11.0184
▁eligibility	-11.0185
▁motorcycle	-11.0187
▁puerto	-11.019
bus	-11.0193
▁improvements	-11.0194
▁unlikely	-11.0203
▁vinyl	-11.0204
▁999	-11.0206
▁landlord	-11.0206
▁grows	-11.0209
▁absorbed	-11.021
iest	-11.0211
▁opinions	-11.0217
▁requests	-11.022
▁tires	-11.022
▁couples	-11.0221
▁buzz	-11.0222
▁legally	-11.0224
▁cad	-11.0231
referring	-11.0235
lam	-11.0236
cap	-11.0236
▁lips	-11.024
▁woods	-11.0241
▁behaviour	-11.0243
▁painted	-11.0243
▁crops	-11.0244
▁athletic	-11.0248
▁colony	-11.0251
▁grab	-11.0254
app	-11.0256
▁reproductive	-11.0258
burn	-11.0265
▁bacon	-11.0266
▁ranch	-11.0267
▁thickness	-11.0268
elli	-11.0268
▁grip	-11.0273
▁toll	-11.0274
▁enjoys	-11.0276
▁fats	-11.0281
▁distinction	-11.0281
▁kiss	-11.0281
▁singing	-11.0282
gli	-11.0283
▁replacing	-11.0283
▁transformation	-11.0285
map	-11.0286
ened	-11.0291
▁scottish	-11.0293
▁voting	-11.0297
▁diesel	-11.0299
▁guilty	-11.0299
▁dressing	-11.0299
▁scandal	-11.0301
▁reporter	-11.0308
▁fusion	-11.0315
zu	-11.0316
hal	-11.0318
▁welfare	-11.0319
▁visited	-11.032
▁upset	-11.032
▁tired	-11.0322
▁forth	-11.0323
▁wikimedia	-11.0324
▁neurons	-11.0327
▁veteran	-11.0336
▁developer	-11.034
▁undergraduate	-11.034
▁sinus	-11.0341
▁habits	-11.0341
▁antibodies	-11.0343
▁exterior	-11.0344
▁intestinal	-11.0346
▁crimes	-11.0348
▁iran	-11.0349
▁albums	-11.0352
▁tomorrow	-11.0355
▁affecting	-11.0355
▁passion	-11.0355
▁kor	-11.0357
▁spark	-11.0357
▁oracle	-11.0357
▁lamb	-11.0358
▁sheets	-11.0359
▁inform	-11.0363
▁dizziness	-11.0364
▁upcoming	-11.0368
▁shots	-11.037
ude	-11.0371
▁lid	-11.0372
▁proved	-11.0375
▁criticism	-11.0377
▁fantasy	-11.0379
tron	-11.038
▁walt	-11.0381
▁establishment	-11.0382
▁cage	-11.0383
▁epic	-11.0384
rite	-11.0388
▁deduction	-11.0389
2016	-11.039
▁variant	-11.0394
▁invest	-11.0398
▁singapore	-11.0398
link	-11.04
▁pittsburgh	-11.0401
part	-11.0406
▁voted	-11.0407
▁jessica	-11.0409
▁001	-11.0411
▁democracy	-11.0412
▁zo	-11.0414
▁specialists	-11.0418
law	-11.0419
iness	-11.0422
▁unlimited	-11.0422
▁lump	-11.0423
▁178	-11.0425
▁chairman	-11.0426
▁lining	-11.0428
▁tonight	-11.0428
▁predict	-11.0433
▁font	-11.0434
▁incorrect	-11.0435
▁involvement	-11.0436
▁nut	-11.0437
▁swollen	-11.0437
▁cer	-11.0438
jan	-11.0438
▁panic	-11.0439
▁slip	-11.0439
▁arena	-11.044
▁convenience	-11.0441
enne	-11.0441
its	-11.0442
▁partially	-11.0443
▁piano	-11.0445
▁132	-11.045
▁fiscal	-11.045
▁210	-11.0451
▁atp	-11.0456
▁faces	-11.0457
▁blame	-11.0458
▁pharmacist	-11.0459
▁ethics	-11.046
▁ros	-11.0462
▁mutual	-11.0466
▁tours	-11.0467
▁encounter	-11.0471
▁boil	-11.0472
▁tears	-11.0475
▁steak	-11.0476
▁settled	-11.0476
▁acc	-11.0476
▁transplant	-11.0478
assuming	-11.0485
76	-11.0496
▁merely	-11.0498
▁parade	-11.0502
▁applicants	-11.0502
▁subsequently	-11.0503
▁princeton	-11.0504
▁basket	-11.0504
▁daylight	-11.0505
▁activation	-11.0505
▁photography	-11.0508
▁leak	-11.051
▁sue	-11.051
▁aviation	-11.0511
▁noble	-11.0512
▁134	-11.0514
▁mint	-11.0515
uff	-11.0517
▁stool	-11.0521
▁hood	-11.0528
▁searching	-11.0529
ency	-11.053
▁wool	-11.053
sion	-11.0532
zan	-11.0534
▁controller	-11.0535
▁query	-11.0537
til	-11.0538
▁mus	-11.0538
▁emphasis	-11.0542
▁pol	-11.0547
▁relate	-11.0548
▁devil	-11.0549
▁blank	-11.0551
▁contributed	-11.0552
▁portfolio	-11.0555
▁summit	-11.0555
▁convenient	-11.0555
▁flashes	-11.0556
▁rack	-11.0556
▁230	-11.0557
▁131	-11.0557
▁threshold	-11.0559
▁dear	-11.0559
▁pale	-11.0561
▁perry	-11.0565
▁taxable	-11.057
▁balanced	-11.057
▁bankruptcy	-11.0571
▁manhattan	-11.0572
▁colonies	-11.0576
▁beliefs	-11.0576
▁epa	-11.0577
▁olympic	-11.0579
▁stra	-11.0581
▁equipped	-11.0582
▁admit	-11.0584
eur	-11.0585
▁bang	-11.0587
▁cnn	-11.0589
▁adds	-11.059
▁burned	-11.059
nate	-11.0593
▁graham	-11.0598
▁sheep	-11.0602
phy	-11.0603
▁rim	-11.0607
▁exhibit	-11.0609
▁relax	-11.0611
▁batman	-11.0616
▁peer	-11.0617
▁2019	-11.0619
▁defeated	-11.062
▁horror	-11.062
▁pod	-11.0623
▁zi	-11.0625
aid	-11.0626
▁workplace	-11.0627
▁boundary	-11.0628
▁eaten	-11.0628
▁gluten	-11.0631
ello	-11.0638
▁singles	-11.0638
▁fbi	-11.0638
▁bark	-11.0639
▁riding	-11.064
average	-11.0641
▁behalf	-11.0643
▁settle	-11.0645
▁dispute	-11.0646
▁honda	-11.065
cre	-11.0651
▁mammals	-11.0651
▁junction	-11.0652
▁boundaries	-11.0653
▁inferior	-11.0656
▁migration	-11.0658
▁gases	-11.0663
▁chromosome	-11.0664
▁muslim	-11.0664
▁diy	-11.0666
▁analyst	-11.0667
▁sessions	-11.067
▁islam	-11.0671
▁opens	-11.0673
▁136	-11.0673
tori	-11.0675
▁teaspoon	-11.0676
▁cabin	-11.0679
▁intent	-11.068
▁literary	-11.0682
row	-11.0682
▁reset	-11.0682
▁skull	-11.0683
lim	-11.0689
▁elbow	-11.0689
▁aka	-11.069
▁parker	-11.069
▁heights	-11.069
▁wipe	-11.0691
▁functioning	-11.0692
▁tomato	-11.0699
ome	-11.0699
aria	-11.0704
▁promoting	-11.0706
ago	-11.0708
unabridged	-11.0708
▁denied	-11.0712
▁viewing	-11.0712
▁licensing	-11.0714
▁crack	-11.0717
▁xl	-11.0719
▁operational	-11.072
▁labels	-11.0721
▁137	-11.0722
▁counseling	-11.0723
▁assumed	-11.0724
date	-11.0724
▁genetics	-11.0726
▁bronze	-11.073
▁sing	-11.0733
▁editors	-11.0734
▁drives	-11.0739
▁wisdom	-11.074
▁streets	-11.0741
▁systematic	-11.0744
▁ounce	-11.0744
kan	-11.0748
▁overnight	-11.0748
und	-11.0751
▁lighter	-11.0753
▁chips	-11.0753
▁defects	-11.0762
▁reproduction	-11.0762
▁freezing	-11.0765
▁xx	-11.0767
▁graphics	-11.0772
▁tourism	-11.0777
▁knife	-11.0777
trop	-11.0778
▁133	-11.0779
▁lying	-11.078
▁gre	-11.078
▁receiver	-11.078
▁dirt	-11.0781
▁graphic	-11.0781
▁tolerance	-11.0781
▁acceptance	-11.0782
▁prey	-11.0784
▁fluids	-11.0787
▁collapse	-11.0787
▁opposition	-11.0788
▁lands	-11.0789
▁1800	-11.0791
▁crucial	-11.0792
▁bitter	-11.0794
▁twelve	-11.0799
▁craig	-11.0799
▁handbook	-11.0802
▁frost	-11.0802
with	-11.0806
▁planting	-11.0807
meanwhile	-11.0807
▁ministry	-11.0812
▁magnet	-11.0812
▁null	-11.0812
▁manufacture	-11.0814
▁kai	-11.0815
▁periodic	-11.0817
▁dye	-11.0819
▁venture	-11.0822
▁pairs	-11.0822
▁registry	-11.0823
▁bride	-11.0824
▁transmitted	-11.0824
▁campbell	-11.0826
▁cole	-11.0827
101	-11.0828
anti	-11.0832
▁realized	-11.0833
▁speeds	-11.0834
▁gains	-11.0835
▁deleted	-11.0839
▁contest	-11.084
▁diabetic	-11.0842
city	-11.0842
▁stamp	-11.0847
▁meetings	-11.085
▁cro	-11.0852
▁genus	-11.0855
regarded	-11.0855
▁impression	-11.0858
▁widespread	-11.0861
▁tribute	-11.0865
▁showcase	-11.0865
gastrointestinal	-11.0866
▁saturated	-11.0868
▁congressional	-11.0868
▁controlling	-11.0869
▁wooden	-11.087
▁beast	-11.0871
▁renewal	-11.0875
▁actively	-11.0875
▁radar	-11.0881
▁enabled	-11.0883
▁electro	-11.0884
▁stat	-11.0885
▁therapist	-11.0885
▁participation	-11.0886
▁tourist	-11.0887
ale	-11.0888
▁grocery	-11.0891
▁detected	-11.0892
▁attitude	-11.0892
▁asks	-11.0893
▁tons	-11.0893
▁cubic	-11.0896
▁pleasant	-11.0897
▁belly	-11.0898
▁newborn	-11.0901
▁hong	-11.0908
▁proceed	-11.0909
▁acre	-11.0912
ogen	-11.0912
▁emotions	-11.0913
▁hart	-11.0915
▁clouds	-11.0916
▁carbohydrate	-11.0919
placing	-11.0919
▁watched	-11.092
▁optimal	-11.0922
▁phones	-11.0922
▁ranking	-11.0925
▁laura	-11.0928
▁echo	-11.093
cid	-11.0931
▁jonathan	-11.0934
▁baked	-11.0934
▁pleasure	-11.0935
▁duct	-11.0937
▁bolt	-11.0939
▁147	-11.094
▁hor	-11.0945
▁philippines	-11.0945
▁connecting	-11.0951
▁billing	-11.0951
▁permits	-11.0951
▁vista	-11.0952
▁illustrated	-11.0962
▁upload	-11.0963
▁statute	-11.0964
▁washing	-11.0965
▁overdose	-11.0967
▁mud	-11.0968
▁adhd	-11.0969
▁punishment	-11.097
▁rats	-11.097
▁inspiration	-11.0971
▁staying	-11.0971
▁flexibility	-11.0972
▁wan	-11.0973
act	-11.0974
▁omega	-11.0976
▁evolved	-11.0977
cle	-11.0983
▁sco	-11.0984
lat	-11.0985
▁newton	-11.0985
▁lasting	-11.0996
▁studios	-11.0997
▁silent	-11.0998
▁fastest	-11.0998
▁shu	-11.0999
▁kay	-11.0999
▁photograph	-11.1005
▁expectations	-11.1005
▁checks	-11.101
▁deeper	-11.1011
▁columns	-11.1014
▁fortune	-11.1016
▁guaranteed	-11.1018
▁identifying	-11.1019
▁lightning	-11.1019
▁fossil	-11.1021
▁producers	-11.1023
▁talks	-11.1024
▁clearance	-11.1027
▁migraine	-11.1031
▁carb	-11.1032
▁resemble	-11.1032
▁sixth	-11.1036
▁rabbit	-11.1039
▁surprised	-11.104
▁surname	-11.1042
▁packages	-11.1045
▁damages	-11.1046
▁coins	-11.1049
▁por	-11.1049
▁capabilities	-11.105
▁flows	-11.105
▁mess	-11.1053
1⁄4	-11.1056
▁expiration	-11.1057
▁apartments	-11.1058
▁heated	-11.1062
▁sunlight	-11.1066
▁thereby	-11.1068
▁earning	-11.1069
▁tenant	-11.1071
▁152	-11.1072
▁experiments	-11.1073
▁considerable	-11.1074
▁clan	-11.1075
▁booking	-11.1077
▁guns	-11.1077
▁transform	-11.1078
▁grounds	-11.1078
▁ginger	-11.1079
▁bulb	-11.1079
▁defend	-11.108
▁dim	-11.1081
▁digest	-11.1081
▁columbus	-11.1087
▁mounted	-11.1088
▁pronounced	-11.1094
pal	-11.1095
▁myth	-11.1103
▁cluster	-11.1105
▁lap	-11.1107
▁void	-11.1107
▁xml	-11.111
▁nelson	-11.1111
▁supplied	-11.1113
▁petition	-11.1114
▁tune	-11.1117
▁stainless	-11.1117
▁spice	-11.1123
▁listening	-11.1125
▁1910	-11.1132
▁basics	-11.1134
▁yogurt	-11.1136
▁offense	-11.1137
▁demographics	-11.114
▁traits	-11.1141
▁dawn	-11.1145
▁rip	-11.1151
▁uni	-11.1155
var	-11.1162
▁coordinates	-11.1163
▁uterus	-11.1163
▁acquire	-11.1164
▁gill	-11.1165
▁cop	-11.1166
▁headed	-11.1167
▁directors	-11.1172
▁1957	-11.1173
▁portrait	-11.1173
▁inherited	-11.1174
▁contacts	-11.1175
▁reed	-11.1176
ectomy	-11.1177
▁everywhere	-11.1179
but	-11.1182
▁pointed	-11.1186
▁reward	-11.1189
▁applicant	-11.1189
▁innovation	-11.1191
rant	-11.1192
▁calculation	-11.1192
▁buck	-11.1193
▁capita	-11.1194
rac	-11.1195
▁thirty	-11.1196
▁loaded	-11.1196
▁platinum	-11.1197
▁lodge	-11.1201
▁adapted	-11.1204
▁conditioning	-11.1204
rich	-11.1205
▁dell	-11.1207
▁sil	-11.1209
▁260	-11.121
▁138	-11.121
▁entries	-11.1211
▁strict	-11.1211
▁traditionally	-11.1212
▁charging	-11.1214
▁chu	-11.1214
▁clip	-11.1215
▁phosphate	-11.1217
hill	-11.122
▁toyota	-11.1221
▁pioneer	-11.1221
▁afraid	-11.1223
▁onion	-11.1223
▁herbal	-11.1223
▁£1	-11.1226
▁facilitate	-11.1227
▁kat	-11.1227
▁folk	-11.123
▁jacob	-11.1232
▁sisters	-11.1232
surrounded	-11.1239
▁spaces	-11.1242
▁gil	-11.1252
▁quantities	-11.1255
▁consumed	-11.1257
▁1500	-11.1259
▁shakespeare	-11.126
▁taxpayers	-11.1261
▁thi	-11.1264
2018	-11.1264
▁highlights	-11.1269
▁proceedings	-11.1269
▁probability	-11.127
rod	-11.127
▁communist	-11.1272
▁retention	-11.1278
▁perception	-11.1278
▁glasses	-11.1279
▁chloride	-11.1284
▁anymore	-11.1287
▁gifts	-11.129
▁1958	-11.1291
▁rocky	-11.1292
▁fails	-11.1295
une	-11.1295
▁attacked	-11.1297
▁scientist	-11.1297
▁rope	-11.1299
▁insight	-11.1302
▁ruled	-11.1302
▁coronary	-11.1303
▁benjamin	-11.1306
▁hockey	-11.1311
▁routes	-11.1313
fought	-11.1314
▁hudson	-11.1315
▁decreases	-11.1316
▁clicking	-11.1317
▁chemotherapy	-11.1321
▁eco	-11.1322
▁jenner	-11.1324
▁installing	-11.1325
cut	-11.1325
▁cle	-11.1326
▁shrink	-11.1326
▁toxicity	-11.1328
▁raid	-11.1331
▁lit	-11.1334
avi	-11.1334
▁itching	-11.1337
3⁄4	-11.1338
▁aspirin	-11.1345
▁202	-11.1346
▁255	-11.1347
▁1955	-11.135
▁jerry	-11.1351
▁billy	-11.1355
meter	-11.1356
300	-11.136
▁attractions	-11.1361
▁1956	-11.1364
rian	-11.1366
dec	-11.1367
▁loving	-11.137
play	-11.137
chen	-11.137
uch	-11.1371
▁158	-11.1372
sum	-11.1373
▁190	-11.1378
▁tutorial	-11.1379
▁cdc	-11.138
▁starter	-11.138
▁swing	-11.1382
▁moist	-11.1382
▁grants	-11.1384
▁wal	-11.1385
▁objectives	-11.1388
▁attach	-11.1391
▁listings	-11.1393
▁carol	-11.1393
▁diagnose	-11.1393
▁205	-11.1396
▁dys	-11.14
▁dying	-11.1401
▁poetry	-11.1402
▁representing	-11.1408
▁rachel	-11.1408
▁doctrine	-11.1411
▁pap	-11.1411
▁specifications	-11.1415
▁electronics	-11.1416
▁separately	-11.1417
▁lets	-11.142
itz	-11.142
▁memories	-11.1421
▁charity	-11.1422
▁witness	-11.1424
▁xbox	-11.1432
▁stain	-11.1436
▁locate	-11.1437
ight	-11.1439
▁shallow	-11.144
▁nickname	-11.1442
▁circular	-11.1443
▁alarm	-11.1445
▁protecting	-11.1445
▁methyl	-11.1446
▁recall	-11.1448
▁portland	-11.1451
▁maine	-11.1451
▁tribe	-11.1452
▁nashville	-11.1456
▁premier	-11.1456
▁164	-11.1458
▁phenomenon	-11.1459
▁analyze	-11.1459
table	-11.1461
▁animated	-11.1466
▁irregular	-11.1467
▁soldier	-11.1472
▁collar	-11.1473
▁studying	-11.1477
▁portable	-11.148
▁medal	-11.148
▁lawsuit	-11.1482
2017	-11.1482
▁pose	-11.1485
char	-11.1486
▁amber	-11.1487
▁fool	-11.149
▁simpson	-11.1491
▁orientation	-11.1491
▁optic	-11.1492
▁worship	-11.1496
▁consciousness	-11.1496
▁stocks	-11.1496
▁latitude	-11.1498
▁challenged	-11.15
▁veterinary	-11.1505
▁advised	-11.1505
▁catalog	-11.1505
▁drew	-11.1508
▁cargo	-11.1509
▁readily	-11.151
▁drainage	-11.151
▁payroll	-11.1515
▁observe	-11.1518
▁recommendation	-11.1519
▁wil	-11.1519
▁impressive	-11.152
▁burden	-11.1522
▁dynasty	-11.1525
▁offensive	-11.1532
▁prolonged	-11.1533
▁rehabilitation	-11.1536
▁shaft	-11.1536
▁demands	-11.1537
▁wow	-11.1538
▁radical	-11.1539
▁chromosomes	-11.154
vir	-11.1543
▁nebraska	-11.1548
▁holder	-11.155
anne	-11.1551
▁silk	-11.1552
▁hired	-11.1555
alt	-11.1555
▁169	-11.1555
▁exceptions	-11.1556
▁fertility	-11.1564
▁encouraged	-11.1565
▁civilization	-11.1568
▁efficacy	-11.157
▁edges	-11.157
▁performer	-11.1571
▁terrible	-11.1575
▁financing	-11.1575
stri	-11.1579
any	-11.1579
▁ruling	-11.1581
may	-11.1582
▁immigrants	-11.1583
▁coral	-11.1583
▁suspected	-11.1584
ological	-11.1585
▁poses	-11.1585
▁medline	-11.1586
▁climb	-11.1587
▁seventh	-11.1588
▁documentary	-11.1592
▁districts	-11.1594
▁armor	-11.1594
▁beneath	-11.1596
▁norman	-11.1597
▁gates	-11.1597
▁excited	-11.1598
▁friendship	-11.1599
▁indicator	-11.1599
▁digestion	-11.1606
have	-11.1608
▁observations	-11.1609
▁pope	-11.1611
▁swedish	-11.1612
▁cafe	-11.1612
▁146	-11.1614
▁marc	-11.1615
▁stan	-11.162
las	-11.1621
▁custody	-11.1621
▁154	-11.1621
▁disabilities	-11.1623
▁amp	-11.1624
ites	-11.1628
▁finds	-11.1628
▁worried	-11.1631
▁laugh	-11.1632
▁comparing	-11.1632
▁hypothesis	-11.1633
▁emerge	-11.1635
ians	-11.1638
▁threatened	-11.1639
▁perceived	-11.1642
▁discussions	-11.1642
▁mansion	-11.1642
▁trademark	-11.1647
▁les	-11.1651
▁wizard	-11.1651
▁everybody	-11.1655
▁spencer	-11.1655
▁arguments	-11.1655
▁habit	-11.1658
▁401	-11.166
▁str	-11.1671
ester	-11.1671
▁340	-11.1672
▁integrity	-11.1672
▁accommodation	-11.1676
000	-11.1676
▁elder	-11.1677
▁prohibited	-11.1679
▁mur	-11.1681
▁lang	-11.1682
▁twist	-11.1683
▁reception	-11.1684
▁linda	-11.1685
nell	-11.1685
▁activated	-11.1689
erie	-11.169
▁varying	-11.1691
▁buried	-11.1691
ika	-11.1691
▁dirty	-11.1692
▁1⁄2	-11.1696
bil	-11.1698
▁tier	-11.1698
▁adopt	-11.1698
▁chem	-11.1709
▁screw	-11.1715
▁evaluated	-11.1717
shire	-11.1718
▁satisfaction	-11.172
▁1939	-11.1721
▁steady	-11.1726
▁shark	-11.1726
▁sweden	-11.1728
▁gui	-11.1729
▁addressed	-11.1732
▁cri	-11.1734
▁270	-11.1736
▁exclusively	-11.1739
max	-11.1739
▁dash	-11.1741
▁sword	-11.1741
▁precise	-11.1742
concluded	-11.1748
stayed	-11.1748
▁achievement	-11.175
▁drum	-11.1751
▁lamp	-11.1751
elsevier	-11.1752
▁gall	-11.1754
▁genome	-11.1754
gre	-11.1756
▁roy	-11.1757
lee	-11.1759
▁comics	-11.1763
rous	-11.1764
▁pac	-11.1765
▁counsel	-11.1766
▁156	-11.1766
▁traveler	-11.1767
▁muscular	-11.1768
▁oriented	-11.177
▁pig	-11.1771
▁adrenal	-11.1773
▁scalp	-11.1775
▁comp	-11.1776
▁mba	-11.1777
mate	-11.1778
▁larry	-11.1783
▁cookies	-11.1783
▁bind	-11.1786
▁operates	-11.1786
▁boiling	-11.1788
▁soluble	-11.1795
▁maple	-11.1796
derm	-11.1797
▁youtube	-11.1798
▁harrison	-11.1799
▁212	-11.1799
▁robinson	-11.18
▁abraham	-11.1803
▁barry	-11.1804
▁hank	-11.1812
▁interfere	-11.1814
▁sync	-11.1819
▁157	-11.182
▁gently	-11.1821
▁insights	-11.1823
▁abandoned	-11.1824
▁hiring	-11.1827
pie	-11.1829
▁physiology	-11.1829
▁optical	-11.1833
▁shuttle	-11.1833
idae	-11.1834
▁148	-11.1837
▁writes	-11.1838
▁blocked	-11.1842
▁herb	-11.1842
▁reign	-11.1842
▁differential	-11.1845
▁exemption	-11.1848
▁poem	-11.1851
▁twins	-11.1853
▁breathe	-11.186
bio	-11.1862
▁syrup	-11.1864
mine	-11.1869
▁partition	-11.187
▁grave	-11.187
▁cheating	-11.187
▁fits	-11.1872
▁151	-11.1873
▁hum	-11.1875
▁alcoholic	-11.1875
▁altitude	-11.188
▁141	-11.1881
▁rejected	-11.1881
▁packed	-11.1888
▁kon	-11.1889
▁territories	-11.1889
▁143	-11.1889
vol	-11.1891
▁hazardous	-11.1901
▁passive	-11.1903
▁pitt	-11.1905
▁cyst	-11.1914
▁1941	-11.1915
▁syria	-11.1915
▁tubes	-11.1917
▁sara	-11.1918
▁bean	-11.1921
closest	-11.1926
▁linux	-11.1928
▁essays	-11.1929
▁packaging	-11.193
▁initiative	-11.1933
last	-11.1938
▁fraction	-11.194
▁insect	-11.1941
▁consuming	-11.1941
ture	-11.1945
tail	-11.1945
▁silence	-11.1947
▁1953	-11.1949
▁departure	-11.195
▁sho	-11.1953
▁composite	-11.1956
▁expertise	-11.1959
▁profession	-11.1965
▁pond	-11.1973
▁153	-11.1973
▁thoroughly	-11.1976
▁assignment	-11.1978
▁minority	-11.1978
▁mutation	-11.1978
▁idaho	-11.1978
▁postal	-11.198
ual	-11.1981
▁uncommon	-11.1985
▁developmental	-11.1988
▁mediterranean	-11.1989
▁parish	-11.1997
▁tale	-11.1998
▁stimulation	-11.1999
▁signing	-11.2001
rel	-11.2002
▁commit	-11.2003
▁dick	-11.2005
▁intel	-11.2007
▁inhibitors	-11.201
far	-11.2012
▁delaware	-11.2014
▁employ	-11.2014
▁weird	-11.2019
▁skilled	-11.202
▁kin	-11.2021
▁1954	-11.2022
▁conviction	-11.2023
▁boo	-11.2023
chu	-11.2025
▁differently	-11.2025
▁challenging	-11.2028
▁mont	-11.2031
▁uncredited	-11.2034
▁alternatives	-11.2034
▁chin	-11.2037
▁glue	-11.2037
▁bench	-11.2037
▁320	-11.2039
▁instances	-11.2041
▁scroll	-11.2041
▁kra	-11.2042
▁embryo	-11.2042
▁shapes	-11.2045
▁cartilage	-11.2046
lit	-11.2046
▁invasive	-11.2047
▁meanings	-11.2048
▁ellen	-11.2051
away	-11.2051
▁murphy	-11.2052
▁550	-11.2054
▁joining	-11.2059
▁followers	-11.2059
▁dementia	-11.206
▁incorporate	-11.2062
wer	-11.2063
▁dentist	-11.2065
▁lace	-11.2066
▁barrel	-11.2067
▁poland	-11.2067
▁newer	-11.2068
▁bake	-11.2069
▁hose	-11.2074
▁curriculum	-11.2075
▁citizenship	-11.2075
2012	-11.2076
▁142	-11.2079
▁counts	-11.208
▁webmaster	-11.208
▁basement	-11.2085
gra	-11.2086
▁regulate	-11.2087
▁nevertheless	-11.2087
▁admin	-11.2089
▁exhaust	-11.2091
▁biopsy	-11.2092
▁indicating	-11.2092
▁honest	-11.2092
▁1948	-11.2092
▁emissions	-11.2094
▁gaming	-11.2096
zen	-11.2097
▁activate	-11.2098
▁espn	-11.2098
stating	-11.2099
▁stanley	-11.2099
▁sacrifice	-11.21
ography	-11.2103
▁difficulties	-11.2104
▁nav	-11.2108
moreover	-11.2114
▁arrives	-11.2122
▁metric	-11.2122
▁pri	-11.2123
matic	-11.2125
vel	-11.2126
▁dial	-11.2128
▁angry	-11.2131
▁barr	-11.2133
▁adobe	-11.2134
▁barn	-11.2135
▁taxi	-11.2139
▁processor	-11.214
▁greg	-11.2141
▁departments	-11.2145
▁gla	-11.2146
pet	-11.2148
▁persistent	-11.215
▁antenna	-11.2151
▁sean	-11.2152
▁commonwealth	-11.2153
▁swim	-11.2159
metric	-11.2165
▁scholarship	-11.2171
hir	-11.2174
assisted	-11.2176
▁prone	-11.2179
▁alice	-11.218
▁consecutive	-11.2182
nov	-11.2184
▁melt	-11.2188
▁cameras	-11.2188
▁khan	-11.219
▁utilize	-11.2193
▁disappear	-11.2193
horn	-11.2197
▁urge	-11.2198
▁cinema	-11.2198
▁hitler	-11.2199
▁bunch	-11.2201
▁zu	-11.2202
▁nobody	-11.2207
▁discipline	-11.2213
▁nicole	-11.2213
▁bloom	-11.2213
▁juvenile	-11.2216
▁heroes	-11.2217
▁develops	-11.2219
▁pelvic	-11.2219
▁280	-11.2221
▁tagged	-11.2225
▁tue	-11.2228
▁churches	-11.223
hol	-11.223
▁attachment	-11.2235
▁ranks	-11.2237
▁roth	-11.2237
▁debit	-11.2237
▁expecting	-11.2239
▁islamic	-11.224
▁167	-11.224
▁peninsula	-11.2246
▁bottles	-11.2247
▁donate	-11.2248
▁frequencies	-11.2253
vid	-11.2254
news	-11.2257
▁generations	-11.2257
▁bishop	-11.2257
sign	-11.2258
▁lopez	-11.2259
▁irritation	-11.2262
base	-11.2262
▁mixing	-11.2263
cott	-11.2265
quin	-11.2265
▁environments	-11.2268
▁ger	-11.2268
berry	-11.227
space	-11.2272
▁smallest	-11.2272
▁cuisine	-11.2273
▁suspended	-11.2274
▁clubs	-11.2275
▁behaviors	-11.2277
▁prevents	-11.2278
people	-11.2278
▁tribes	-11.228
▁spec	-11.2281
▁hampshire	-11.2283
▁elect	-11.2284
▁gem	-11.229
▁taxpayer	-11.2294
eck	-11.2297
▁161	-11.2301
▁moments	-11.2302
▁tyler	-11.2307
▁cerebral	-11.2308
lip	-11.2311
▁neil	-11.2311
▁203	-11.2317
▁creator	-11.2319
▁praise	-11.232
argued	-11.2321
▁consultation	-11.2321
▁shelf	-11.2323
▁184	-11.2326
▁warrant	-11.2326
▁invention	-11.2329
▁outlet	-11.2329
▁flex	-11.233
▁associates	-11.2334
gas	-11.2338
▁panels	-11.2338
▁radius	-11.2339
▁pays	-11.2342
cas	-11.2343
▁bugs	-11.2346
▁limb	-11.2349
▁jp	-11.2349
▁investments	-11.235
▁entities	-11.2351
▁graduation	-11.2352
▁filming	-11.2353
▁farming	-11.2355
▁slang	-11.2358
▁warner	-11.2363
▁177	-11.2368
ridge	-11.237
▁cartoon	-11.2374
▁1949	-11.2375
▁toys	-11.2376
▁330	-11.2377
file	-11.238
▁boots	-11.2381
▁expanding	-11.2384
▁semester	-11.2386
▁dun	-11.2387
▁topical	-11.2387
▁allied	-11.2387
▁lenses	-11.2389
▁labeled	-11.2391
▁induce	-11.2391
▁stopping	-11.2395
▁flame	-11.2395
▁productivity	-11.2396
▁organizational	-11.24
▁crab	-11.24
owed	-11.24
lian	-11.2403
▁cherry	-11.2408
▁ignore	-11.241
▁considerations	-11.241
▁boom	-11.241
▁enrolled	-11.2411
▁hanging	-11.2412
▁162	-11.2413
asse	-11.2413
▁chuck	-11.2413
▁163	-11.2414
▁alleged	-11.2415
▁anger	-11.2423
hard	-11.2425
▁888	-11.2428
▁brave	-11.2434
▁floral	-11.2435
▁villa	-11.2436
▁crystals	-11.2436
▁berry	-11.2441
▁pulling	-11.2443
▁genital	-11.2443
▁166	-11.2445
▁boats	-11.2447
▁enemies	-11.2448
▁mut	-11.2449
▁remedy	-11.2449
▁complaints	-11.2449
ech	-11.2453
▁luc	-11.2456
▁rape	-11.2457
▁broker	-11.2459
▁cooler	-11.246
▁buyers	-11.2463
▁reservoir	-11.2464
▁streaming	-11.2468
▁cortex	-11.2475
▁michelle	-11.2478
▁sandy	-11.2478
▁steering	-11.2478
▁balloon	-11.2479
▁peel	-11.2483
▁murray	-11.2483
▁evans	-11.2483
▁slot	-11.2487
▁overcome	-11.2488
▁beaches	-11.2489
▁tokyo	-11.249
master	-11.2496
▁adapt	-11.2501
▁pas	-11.2502
▁dodge	-11.2503
▁mucus	-11.2503
▁0000	-11.2503
qu	-11.2504
rist	-11.2506
▁psycho	-11.2509
▁presents	-11.2511
▁moss	-11.2512
▁tornado	-11.2512
boy	-11.2513
▁enables	-11.2516
▁breeds	-11.2522
▁morris	-11.2522
▁photographer	-11.2523
800	-11.2524
▁happiness	-11.2524
els	-11.2527
▁172	-11.2532
lex	-11.2532
▁newspapers	-11.2537
▁libraries	-11.2539
▁mutations	-11.2542
▁protest	-11.2544
▁casting	-11.2548
sun	-11.2549
▁implications	-11.255
▁narrative	-11.2551
▁tendon	-11.2552
▁gods	-11.2553
▁gentle	-11.2553
▁somebody	-11.2557
▁forests	-11.2558
▁logical	-11.256
▁fetal	-11.256
▁translated	-11.2561
▁indigenous	-11.2562
▁roller	-11.2562
▁bile	-11.2564
▁farms	-11.2564
ines	-11.2567
▁planets	-11.2568
▁orchestra	-11.2569
▁containers	-11.2579
▁ronald	-11.2581
▁toxins	-11.2584
▁sel	-11.2585
▁dated	-11.2586
▁201	-11.2587
▁purchases	-11.2587
▁skirt	-11.2591
▁gale	-11.2591
▁deeply	-11.2592
▁reflection	-11.2597
▁sandwich	-11.2598
▁blvd	-11.2599
▁intensive	-11.26
▁manchester	-11.2601
▁construct	-11.2601
▁motivation	-11.2603
▁eva	-11.2603
▁flesh	-11.2603
lop	-11.2606
▁unlock	-11.2607
▁curves	-11.2607
▁650	-11.2608
▁consultant	-11.2609
right	-11.2611
▁1942	-11.2611
▁prop	-11.2611
▁mun	-11.2613
▁weed	-11.2613
▁fitting	-11.2614
load	-11.2616
▁genuine	-11.2616
▁agis	-11.2616
▁365	-11.2622
▁gather	-11.2622
ail	-11.2625
▁proc	-11.2626
▁snack	-11.2628
▁rad	-11.2629
▁controversial	-11.2631
▁victor	-11.2631
▁altered	-11.2631
▁persian	-11.2633
▁attending	-11.2635
▁controversy	-11.2636
▁governments	-11.2637
▁supervisor	-11.2638
gua	-11.2642
▁celebration	-11.2642
▁implemented	-11.2643
▁metallic	-11.2643
▁interstate	-11.2645
▁documented	-11.2645
▁struck	-11.2646
ense	-11.2649
▁tick	-11.265
▁blues	-11.265
▁lesser	-11.2653
▁dough	-11.2654
▁agi	-11.2661
▁revolutionary	-11.2661
▁contractors	-11.2661
completing	-11.2662
bor	-11.2663
▁poster	-11.2663
▁sponge	-11.2665
▁qualities	-11.2666
▁mason	-11.2674
▁josh	-11.2675
▁alzheimer	-11.2675
▁consistently	-11.2675
▁jeans	-11.2676
▁len	-11.268
▁statue	-11.2683
umb	-11.2687
▁rico	-11.2688
▁fisher	-11.2689
▁pseudo	-11.2691
▁particle	-11.2692
▁trek	-11.2693
▁hawaiian	-11.2697
cra	-11.2698
▁cycles	-11.2698
▁divine	-11.2701
▁trucks	-11.2701
▁ethical	-11.2703
▁capsule	-11.2704
▁181	-11.2704
▁avi	-11.2709
▁swiss	-11.2716
ough	-11.2717
▁heater	-11.2722
▁genre	-11.2724
claiming	-11.2725
▁shrimp	-11.2726
long	-11.2727
▁rocket	-11.273
▁leon	-11.2731
▁rows	-11.2731
▁absent	-11.2733
▁instructor	-11.2735
▁coil	-11.2736
▁emma	-11.2736
▁1947	-11.2738
aimed	-11.2742
▁fiance	-11.2743
▁supplier	-11.2743
▁cramps	-11.2744
fully	-11.2746
▁bou	-11.2748
▁cuba	-11.2749
2010	-11.2751
bank	-11.2755
▁spy	-11.2759
▁locked	-11.2759
world	-11.2762
rat	-11.2766
related	-11.2768
▁pyramid	-11.2769
▁winners	-11.2771
▁switzerland	-11.2772
▁advisory	-11.2772
▁protestant	-11.2776
hel	-11.2777
▁catheter	-11.2778
your	-11.278
▁enlarged	-11.2783
▁correlation	-11.2784
wind	-11.2785
▁treasury	-11.2786
maker	-11.2787
▁adapter	-11.2789
fre	-11.2789
▁contraction	-11.2789
▁overseas	-11.279
▁199	-11.2794
▁parameter	-11.2796
▁carriers	-11.2796
▁anybody	-11.2798
▁208	-11.2799
▁nights	-11.2805
▁207	-11.2806
▁oliver	-11.2811
▁alphabet	-11.2812
▁lovely	-11.2815
▁ribs	-11.2818
nite	-11.2821
▁consulting	-11.2824
▁bites	-11.2825
▁correction	-11.2825
▁defensive	-11.2828
▁investigate	-11.2829
here	-11.283
▁floors	-11.2831
via	-11.2834
▁algae	-11.2834
▁mills	-11.2834
▁juan	-11.2834
▁cedar	-11.2835
001	-11.2837
▁satisfied	-11.2837
www	-11.2844
▁reflex	-11.2846
serv	-11.2847
▁stood	-11.2851
▁fungi	-11.2851
▁hosted	-11.2851
cation	-11.2852
▁determines	-11.2856
▁abnormalities	-11.2862
starring	-11.2862
▁1952	-11.2864
▁voluntary	-11.2866
▁declare	-11.2866
▁mitchell	-11.2867
his	-11.2867
▁wwe	-11.2868
▁diana	-11.2872
▁outfit	-11.2874
▁lawyers	-11.2874
bell	-11.2878
▁restoration	-11.2879
▁uncle	-11.2882
▁prayer	-11.2883
▁exciting	-11.2887
▁vulnerable	-11.2887
▁coating	-11.2888
etic	-11.289
▁basal	-11.2892
▁profits	-11.2895
▁bases	-11.2897
▁cement	-11.2897
replied	-11.2898
▁thigh	-11.2898
ific	-11.2899
▁penny	-11.29
edit	-11.2901
▁lender	-11.2901
▁menstrual	-11.2902
▁recipient	-11.2906
omb	-11.2907
▁computing	-11.2909
▁850	-11.291
▁reside	-11.2911
▁1944	-11.2912
▁panther	-11.2915
▁chains	-11.2917
▁slope	-11.2919
▁quarters	-11.2919
▁obstruction	-11.292
lite	-11.2923
▁hosts	-11.2923
▁cleaner	-11.2925
▁stupid	-11.2925
▁harsh	-11.2926
▁prospective	-11.2927
▁dock	-11.2927
▁wrestling	-11.2928
▁vegan	-11.2929
▁mistakes	-11.293
▁hemisphere	-11.293
mid	-11.2931
anna	-11.2932
▁rust	-11.2932
▁centered	-11.2933
▁dal	-11.2937
▁1918	-11.2939
▁bieber	-11.294
▁bipolar	-11.2941
▁deadly	-11.2942
aka	-11.2942
▁keith	-11.2948
arian	-11.2949
▁atmospheric	-11.2951
▁probe	-11.2951
▁tendency	-11.2953
▁steep	-11.2954
▁pathway	-11.2957
▁cox	-11.296
▁rival	-11.2961
▁attribute	-11.2962
source	-11.2962
▁footage	-11.2963
▁sony	-11.2966
▁sausage	-11.2966
▁arranged	-11.2968
she	-11.2969
▁bibliography	-11.297
▁allowance	-11.297
▁angles	-11.2972
▁automotive	-11.2974
▁selective	-11.2975
cip	-11.2975
▁collagen	-11.2975
▁cleavage	-11.2977
▁possess	-11.2979
▁coupon	-11.2982
▁decay	-11.2986
▁knot	-11.2986
▁marrow	-11.2988
▁abroad	-11.2989
▁mathematical	-11.2991
▁avoiding	-11.2995
▁impaired	-11.2999
gonna	-11.3
▁folks	-11.3
▁insulation	-11.3003
▁brass	-11.3006
▁lava	-11.3006
graph	-11.3007
▁adaptation	-11.3008
focuses	-11.3011
▁1946	-11.3013
▁portions	-11.3014
▁burst	-11.3019
▁slice	-11.302
▁investing	-11.3023
▁attributes	-11.3023
▁indication	-11.3024
▁emerging	-11.3025
▁examined	-11.3026
▁skeletal	-11.303
▁hollow	-11.3031
▁sleeve	-11.3032
▁bust	-11.3034
▁gdp	-11.3034
▁warming	-11.3036
▁airways	-11.3042
▁215	-11.3042
▁resist	-11.3043
▁homemade	-11.3047
▁receipt	-11.3049
▁eli	-11.3053
▁highways	-11.3055
▁waist	-11.3055
▁distinctive	-11.3056
wal	-11.3056
▁rational	-11.3061
▁fallen	-11.3067
▁reconstruction	-11.3069
▁monroe	-11.3073
▁bac	-11.3073
▁distinguished	-11.3076
▁collaboration	-11.3076
chlor	-11.3077
▁stolen	-11.3078
▁publicly	-11.308
▁loves	-11.3082
stock	-11.3087
▁preference	-11.3091
▁filters	-11.3092
▁183	-11.3092
chy	-11.3093
eve	-11.3093
▁173	-11.3094
▁richmond	-11.3094
▁veterinarian	-11.3095
▁banana	-11.3095
▁editorial	-11.3096
▁mast	-11.3096
▁qualifying	-11.3096
▁revision	-11.31
▁lauren	-11.31
▁appearing	-11.3101
▁baseline	-11.3102
▁modify	-11.3103
radi	-11.3111
2008	-11.3113
▁soundtrack	-11.3117
ched	-11.3119
▁musician	-11.3119
▁extraction	-11.312
▁rinse	-11.3121
▁flush	-11.3125
ander	-11.3129
▁cannabis	-11.3131
life	-11.3131
logic	-11.3131
▁disclaimer	-11.3132
pel	-11.3133
answered	-11.3136
▁socket	-11.3136
▁bias	-11.3136
▁herpes	-11.314
▁liter	-11.314
▁325	-11.3142
▁gasoline	-11.3143
▁outline	-11.3148
▁distinguish	-11.3148
▁crest	-11.3151
▁stiff	-11.3152
▁sexually	-11.3152
trans	-11.3161
▁extends	-11.3162
▁174	-11.3163
▁mandatory	-11.3165
▁prevalence	-11.3165
▁transcription	-11.3165
▁sealed	-11.3167
mes	-11.3169
▁dropping	-11.3174
▁vaccination	-11.3176
▁wider	-11.3181
▁continent	-11.3185
▁thunder	-11.3186
▁aggregate	-11.3187
▁flowing	-11.319
▁kent	-11.3193
▁austria	-11.3193
dom	-11.3194
▁safari	-11.3196
▁horizon	-11.3198
▁starch	-11.3199
▁confident	-11.3202
enjoying	-11.3202
uria	-11.3204
▁programme	-11.3207
▁cpu	-11.3207
▁regulated	-11.3209
hole	-11.321
▁lou	-11.321
▁deserve	-11.3212
▁cass	-11.3214
▁navigate	-11.3214
▁repairs	-11.3214
▁participating	-11.3217
▁cute	-11.3218
▁sunshine	-11.3219
▁hindu	-11.3219
▁turtle	-11.3219
▁deceased	-11.3221
now	-11.3221
▁appearances	-11.3222
▁notify	-11.3223
when	-11.3223
▁mechanics	-11.3224
rated	-11.3225
▁threats	-11.3227
▁targets	-11.3229
▁pile	-11.3229
▁accommodate	-11.323
▁rag	-11.323
▁assign	-11.323
▁shin	-11.323
▁inserted	-11.3232
▁renaissance	-11.3232
▁indirect	-11.3234
▁fate	-11.3234
reg	-11.3237
▁pest	-11.3238
ult	-11.3239
▁practitioners	-11.3241
ente	-11.3241
▁viewers	-11.3245
nine	-11.3246
▁borders	-11.3247
▁lar	-11.3248
▁creatures	-11.3254
▁182	-11.3255
▁mobility	-11.3255
▁tal	-11.3255
▁temporarily	-11.3256
▁ancestry	-11.3257
▁fog	-11.326
▁voters	-11.3261
ffer	-11.3262
▁judges	-11.3262
ule	-11.3264
▁deductible	-11.3264
▁innovative	-11.3266
▁emp	-11.3271
2014	-11.3271
▁recommends	-11.3271
▁establishing	-11.3271
aze	-11.3271
▁accidents	-11.3272
▁onions	-11.3275
▁karen	-11.328
leg	-11.3281
▁avoided	-11.3281
gotten	-11.3283
path	-11.3283
▁qu	-11.3285
▁trainer	-11.3286
▁operators	-11.3286
▁maker	-11.3287
▁explosion	-11.3288
▁collective	-11.3289
▁commissioner	-11.329
▁violations	-11.3291
▁pyr	-11.3291
▁treasure	-11.3292
▁submission	-11.3293
▁norway	-11.33
▁occasional	-11.3309
▁margaret	-11.3311
chan	-11.3314
▁slam	-11.3316
▁bud	-11.3317
▁chile	-11.3318
▁nationwide	-11.3321
bound	-11.3323
por	-11.3324
▁handed	-11.3326
▁simultaneously	-11.3327
▁transcript	-11.3328
▁lag	-11.3328
solely	-11.3329
▁scholars	-11.333
▁hazard	-11.3331
brook	-11.3332
▁eclipse	-11.3332
▁profiles	-11.3333
▁floating	-11.3333
▁collecting	-11.3338
▁quoted	-11.3341
cent	-11.3342
▁malaysia	-11.3342
▁hike	-11.3343
400	-11.3343
lene	-11.3343
▁psychiatric	-11.3347
zel	-11.3348
watch	-11.335
▁tur	-11.3352
▁206	-11.3353
▁yearly	-11.3355
▁traditions	-11.3356
eng	-11.3356
▁dehydration	-11.3357
▁176	-11.3357
▁scratch	-11.3358
▁begun	-11.3358
▁coding	-11.3362
2015	-11.3365
▁advocate	-11.3369
▁regards	-11.3372
▁slim	-11.3377
▁sage	-11.3377
▁notion	-11.3378
▁anesthesia	-11.338
▁enters	-11.3382
responded	-11.3384
▁plains	-11.3385
▁ensemble	-11.3388
▁rogers	-11.3388
▁iodine	-11.3388
▁federation	-11.339
▁remind	-11.3401
weight	-11.3404
▁suites	-11.3408
bridge	-11.3411
▁christianity	-11.3412
▁penalties	-11.3421
sian	-11.3423
▁specification	-11.3426
▁overhead	-11.3427
▁compromise	-11.3427
pper	-11.3428
pushed	-11.3428
▁lam	-11.3429
▁coordinator	-11.3429
▁spill	-11.3431
▁concentrated	-11.3433
▁scenario	-11.3436
gri	-11.3436
▁rainbow	-11.3437
▁susceptible	-11.3437
▁customs	-11.3439
▁automated	-11.3441
tech	-11.3442
▁affair	-11.3442
▁freezer	-11.3444
▁respiration	-11.3447
page	-11.3447
▁titled	-11.3448
▁ruby	-11.345
▁midnight	-11.3451
▁converter	-11.3452
▁sacred	-11.3454
▁assessed	-11.3455
▁autoimmune	-11.3456
▁recurring	-11.3457
▁advertise	-11.3457
izer	-11.3458
▁treats	-11.346
▁171	-11.3462
▁graw	-11.3465
▁obligation	-11.3465
vic	-11.3465
▁aaron	-11.3465
inter	-11.3468
▁shan	-11.3468
▁latino	-11.3474
▁conjunction	-11.3474
▁congenital	-11.3481
▁whale	-11.3482
site	-11.3488
rium	-11.3489
▁defect	-11.3489
lander	-11.349
pos	-11.3491
▁ourselves	-11.3492
▁trains	-11.3492
▁attendance	-11.3493
▁issn	-11.3497
ments	-11.3499
▁rum	-11.35
▁benign	-11.3501
▁chew	-11.3501
▁searches	-11.3503
otic	-11.3504
▁shine	-11.3505
ising	-11.3505
▁mario	-11.3511
▁vegetarian	-11.3511
▁survived	-11.3512
▁dividend	-11.3513
hoping	-11.3514
▁legendary	-11.3518
▁evolve	-11.3519
▁aero	-11.3519
▁suppose	-11.3519
▁interviews	-11.3524
▁256	-11.3525
▁fighter	-11.3529
mol	-11.353
▁respective	-11.3533
▁immuno	-11.3535
▁antibody	-11.3537
▁gathering	-11.3544
▁vii	-11.3545
▁beverages	-11.3546
▁div	-11.3547
▁executed	-11.3549
▁scrap	-11.3549
▁commands	-11.355
▁cincinnati	-11.355
▁ww	-11.3553
▁debris	-11.3554
▁hrs	-11.3557
card	-11.3558
▁concentrate	-11.3562
▁amended	-11.3563
▁occasion	-11.3564
▁painter	-11.3564
▁harvey	-11.3566
▁spare	-11.3569
▁undergo	-11.3569
▁abortion	-11.3571
▁192	-11.3573
▁ple	-11.3576
▁substrate	-11.3577
ille	-11.358
▁practitioner	-11.3583
▁daughters	-11.3583
▁closure	-11.3587
▁allies	-11.3587
ttle	-11.3587
▁sunrise	-11.3589
▁deputy	-11.3592
code	-11.3593
utter	-11.3596
▁soak	-11.3598
rak	-11.3598
▁expedition	-11.3598
▁gig	-11.3599
▁supervision	-11.36
▁intelligent	-11.3602
▁bypass	-11.3603
▁reservation	-11.3603
▁borough	-11.3604
▁banned	-11.3605
▁cisco	-11.3609
▁curious	-11.3609
deemed	-11.3609
▁vancouver	-11.361
▁275	-11.3612
▁describing	-11.3617
▁exploration	-11.3621
▁manifest	-11.3622
▁tray	-11.3623
▁czech	-11.3623
▁targeted	-11.3624
▁swa	-11.3624
▁1890	-11.3625
▁enormous	-11.3625
nation	-11.3626
▁thor	-11.3627
hil	-11.3628
▁poorly	-11.3629
▁pickup	-11.363
▁cents	-11.3632
rop	-11.3633
▁finder	-11.3633
▁attraction	-11.3633
▁verse	-11.3636
▁collections	-11.3638
▁permanently	-11.364
lation	-11.3641
▁convicted	-11.3642
▁explosive	-11.3642
▁ceramic	-11.3644
▁lynn	-11.3645
▁nixon	-11.3648
▁seizure	-11.3649
▁turkish	-11.365
▁situated	-11.3654
▁joke	-11.3655
▁confederate	-11.3658
▁briefly	-11.366
▁baths	-11.366
▁fal	-11.3666
was	-11.3667
eter	-11.3668
▁gastric	-11.3668
▁kal	-11.3672
▁bru	-11.3673
▁knock	-11.3674
▁celebrities	-11.3678
▁accurately	-11.368
▁214	-11.3683
invited	-11.3684
erson	-11.3684
▁dialog	-11.3687
▁vagina	-11.3689
▁vendor	-11.369
chin	-11.3691
▁blanket	-11.3691
▁merchant	-11.3694
▁reflected	-11.3695
▁cache	-11.3696
▁tang	-11.3706
▁flags	-11.3708
▁310	-11.3712
▁bits	-11.3713
▁1951	-11.3713
▁calculations	-11.3715
▁plaque	-11.3716
▁tanks	-11.3719
▁fry	-11.372
got	-11.3721
▁sexy	-11.3724
▁185	-11.3724
▁hint	-11.3726
▁comparable	-11.3728
▁retro	-11.3728
▁eve	-11.3728
▁sugars	-11.373
talked	-11.3733
▁progression	-11.3733
▁focusing	-11.3737
▁torque	-11.3739
care	-11.3739
▁agreements	-11.3741
▁rifle	-11.3745
▁kl	-11.3748
▁header	-11.3748
▁marble	-11.375
ock	-11.375
▁caesar	-11.3751
▁occurrence	-11.3754
▁montgomery	-11.3756
▁numbness	-11.3756
▁tense	-11.3758
▁rapper	-11.3759
▁blake	-11.376
▁vis	-11.376
▁strengthen	-11.3761
ndra	-11.3762
▁sellers	-11.3766
▁mai	-11.3767
▁promoted	-11.3767
▁apa	-11.3769
▁appeals	-11.3771
▁comply	-11.3772
▁recreational	-11.3773
▁obtaining	-11.3774
pit	-11.3774
▁existed	-11.3776
▁civilian	-11.3776
▁ports	-11.3778
▁hatch	-11.3781
▁relie	-11.3782
▁antonyms	-11.3783
▁bare	-11.3785
▁plum	-11.3785
▁regime	-11.3786
elia	-11.3787
▁intravenous	-11.3789
▁infinity	-11.379
▁strongest	-11.3792
▁bicycle	-11.3793
tive	-11.3795
▁sym	-11.3797
▁declined	-11.3797
▁nec	-11.3797
▁timber	-11.3798
▁designation	-11.3799
▁envelope	-11.38
▁photographs	-11.38
pri	-11.3801
▁daytime	-11.3802
rheumatoid	-11.3803
▁societies	-11.3803
▁striking	-11.3804
▁warehouse	-11.3814
▁rotate	-11.3815
▁clo	-11.3815
▁retained	-11.3816
▁jamie	-11.3819
▁adventures	-11.382
▁grim	-11.3821
▁geological	-11.3822
▁defence	-11.3823
▁eur	-11.3824
▁cont	-11.3825
▁1943	-11.3831
▁phrases	-11.3835
▁faqs	-11.3836
▁offline	-11.384
▁modification	-11.3841
▁descent	-11.3846
family	-11.3847
▁hitting	-11.3849
▁accumulation	-11.3852
▁firefox	-11.3854
▁alfred	-11.3854
▁imagination	-11.3855
ike	-11.3856
▁kha	-11.3856
▁cruz	-11.3857
▁jeremy	-11.3859
▁developers	-11.386
▁fridge	-11.3861
▁offenders	-11.3861
▁glossary	-11.3861
▁surprising	-11.3869
▁terminology	-11.387
▁encountered	-11.3872
▁caps	-11.3877
▁secrets	-11.3879
▁edema	-11.388
▁appendix	-11.3881
▁immunity	-11.3882
▁charger	-11.3883
▁funded	-11.3886
▁dale	-11.3886
▁checker	-11.3888
▁rpm	-11.3889
▁denmark	-11.3891
▁membranes	-11.3899
▁incomplete	-11.3902
yle	-11.3904
▁dictionaries	-11.3907
▁varied	-11.3913
▁snakes	-11.3916
▁relatives	-11.3918
cci	-11.3921
▁petroleum	-11.3924
▁anime	-11.3925
▁wholesale	-11.3928
▁arrangements	-11.3929
▁frederick	-11.393
▁instantly	-11.393
▁caring	-11.3931
▁bedrooms	-11.3934
▁bucket	-11.3935
▁dome	-11.3935
▁corporations	-11.3938
▁peanut	-11.3948
▁hemoglobin	-11.3949
ull	-11.395
▁shocking	-11.3951
▁ncaa	-11.3954
▁referral	-11.3955
hopefully	-11.3957
▁critic	-11.3959
▁decimal	-11.3959
phi	-11.3959
▁fifty	-11.3959
tting	-11.396
▁travelers	-11.396
▁penis	-11.396
▁poet	-11.3961
▁notification	-11.3964
cine	-11.3964
▁plaza	-11.3967
▁charm	-11.397
▁capability	-11.397
▁reef	-11.3971
tim	-11.3971
incredibly	-11.3972
▁frontier	-11.3972
letting	-11.3973
▁1933	-11.3974
▁gallons	-11.3974
▁nickel	-11.3978
▁functionality	-11.3986
▁conscious	-11.3988
contributing	-11.3988
phen	-11.3989
▁distant	-11.3993
▁scam	-11.3994
▁buffer	-11.3994
▁ribbon	-11.3995
admits	-11.3997
xx	-11.3999
▁cube	-11.3999
about	-11.4002
▁publish	-11.4003
▁watson	-11.4003
▁promotes	-11.4005
▁warfare	-11.4005
▁colleagues	-11.4006
▁pasta	-11.4007
▁andrea	-11.4011
▁walmart	-11.4017
▁coordination	-11.4018
▁sustainable	-11.4019
▁bail	-11.4022
▁scored	-11.4024
▁cone	-11.4024
▁transfers	-11.4024
▁pads	-11.4027
▁valves	-11.4029
very	-11.403
▁wed	-11.4036
lou	-11.4037
▁planted	-11.4039
historically	-11.404
▁servers	-11.404
▁hunger	-11.4041
▁influenza	-11.4041
▁strap	-11.4041
▁volcano	-11.4042
▁bridges	-11.4042
originated	-11.4043
test	-11.4046
▁bundle	-11.4047
rating	-11.4049
▁1880	-11.4056
▁fare	-11.4062
▁sponsor	-11.4063
▁jeffrey	-11.4064
▁eliminated	-11.4064
▁metres	-11.4065
member	-11.4066
▁authorization	-11.4068
▁accredited	-11.407
iza	-11.4071
▁chopped	-11.4071
auer	-11.4071
▁elvis	-11.4073
▁insured	-11.4073
▁precision	-11.4074
▁motors	-11.4075
▁sour	-11.4077
▁drift	-11.4078
▁trivia	-11.4081
tate	-11.4084
▁carcinoma	-11.4085
▁tetra	-11.4086
▁breach	-11.4086
▁decent	-11.4086
▁shades	-11.4088
▁garner	-11.4088
▁sphere	-11.4089
▁discounts	-11.4091
▁democrats	-11.4092
▁succeed	-11.4092
▁som	-11.4092
▁thailand	-11.4093
▁silicon	-11.4094
▁robot	-11.4095
▁strictly	-11.4097
pushing	-11.4099
▁dimensional	-11.4101
▁steal	-11.4101
▁mistaken	-11.4101
▁ladies	-11.4102
▁nancy	-11.4108
aux	-11.4108
▁distress	-11.4111
▁209	-11.4111
▁accent	-11.4111
▁donor	-11.4113
succeeded	-11.4113
▁numerical	-11.4114
▁patrol	-11.4116
▁spirits	-11.4117
▁cameron	-11.4121
▁dennis	-11.4122
▁breastfeeding	-11.4123
▁costume	-11.4124
▁410	-11.4124
▁litter	-11.4131
▁dwarf	-11.4134
▁jen	-11.4138
lac	-11.4138
▁mailing	-11.4145
fee	-11.4145
iller	-11.4147
▁beats	-11.4148
▁independently	-11.4149
▁accomplished	-11.415
zon	-11.415
uli	-11.4151
▁hack	-11.4151
▁drying	-11.4154
put	-11.4156
▁complexity	-11.4159
▁earl	-11.4161
lasted	-11.4162
▁norwegian	-11.4163
▁karl	-11.4163
▁quarterly	-11.4164
▁imposed	-11.4165
▁predicted	-11.4165
▁rolls	-11.4167
easiest	-11.417
▁bent	-11.4171
hart	-11.4173
nous	-11.4175
▁204	-11.4176
▁vanilla	-11.4177
▁jake	-11.4177
▁chevrolet	-11.4178
▁ext	-11.4178
▁announce	-11.4181
▁investor	-11.4183
▁accomplish	-11.4184
backed	-11.4185
▁adv	-11.4185
▁reliability	-11.4187
▁mothers	-11.4189
▁lily	-11.419
▁neurological	-11.419
▁uber	-11.419
rock	-11.4191
▁medial	-11.4192
▁flooring	-11.4195
▁hepatic	-11.4197
▁bella	-11.4199
▁cyber	-11.4201
▁brilliant	-11.4203
▁demographic	-11.4204
▁wishes	-11.4207
▁segments	-11.4207
▁mileage	-11.4208
▁quad	-11.4211
▁gan	-11.4211
▁shingles	-11.4214
▁announcement	-11.4216
▁puppies	-11.4219
▁slower	-11.4219
▁trips	-11.4219
▁embrace	-11.4219
▁480	-11.422
▁−1	-11.422
▁comedian	-11.4222
▁zoom	-11.4224
▁eddie	-11.4227
▁throwing	-11.4228
▁elegant	-11.423
▁durable	-11.423
▁architect	-11.4231
▁republicans	-11.4234
bur	-11.4235
▁divisions	-11.4242
▁psoriasis	-11.4245
hood	-11.4245
een	-11.4248
▁secured	-11.4249
2013	-11.425
wick	-11.425
likelihood	-11.4251
▁indonesia	-11.4253
vers	-11.4255
▁ralph	-11.4256
▁kits	-11.4257
▁brit	-11.4261
▁fractures	-11.4261
fall	-11.4262
▁mob	-11.4263
▁mcg	-11.4264
▁foil	-11.4264
▁ferry	-11.4266
front	-11.4266
▁graft	-11.4266
▁dimension	-11.4267
▁sulfate	-11.4269
▁warrior	-11.4269
▁execute	-11.4269
▁vas	-11.427
▁theoretical	-11.4275
mil	-11.4278
▁tampa	-11.4279
▁destinations	-11.428
▁themes	-11.4283
▁merit	-11.4284
▁persist	-11.4288
▁danny	-11.4289
▁testament	-11.4289
▁insomnia	-11.4291
▁1917	-11.4291
▁usda	-11.4294
▁1914	-11.4297
▁balls	-11.4297
high	-11.4301
777	-11.4301
▁schu	-11.4301
▁sulfur	-11.4302
▁stylish	-11.4302
▁strips	-11.4305
▁chill	-11.4307
mac	-11.4309
vent	-11.4311
flu	-11.4312
good	-11.4313
uni	-11.4314
▁elimination	-11.4319
▁clone	-11.4323
▁erosion	-11.4323
▁kindle	-11.4325
▁magical	-11.4326
▁raven	-11.4329
▁airports	-11.433
▁slate	-11.4331
▁influences	-11.4333
150	-11.4333
credited	-11.4333
▁mul	-11.4333
attempting	-11.4334
▁autumn	-11.4335
cca	-11.4336
data	-11.4341
▁bash	-11.4342
▁lien	-11.4343
▁secretion	-11.4344
▁storms	-11.4345
▁ulcers	-11.4347
▁puzzle	-11.435
▁generator	-11.4351
▁pete	-11.4352
▁216	-11.4354
▁gospel	-11.4357
attributed	-11.4358
▁parkinson	-11.4362
▁gps	-11.4364
notably	-11.4367
▁volunteers	-11.4368
▁contrary	-11.4368
▁plague	-11.4371
▁ligament	-11.4373
▁strains	-11.4374
▁telegraph	-11.4374
▁priest	-11.4381
▁dump	-11.4382
morph	-11.4382
▁cardio	-11.4382
▁oxidation	-11.4384
▁stays	-11.4386
▁intention	-11.4389
▁solving	-11.439
▁fertilizer	-11.4391
▁cohen	-11.4393
▁pos	-11.44
▁hernia	-11.4402
▁monte	-11.4402
▁quebec	-11.4408
▁venus	-11.4408
▁cancellation	-11.4413
▁pancreas	-11.4413
▁lifting	-11.4414
▁verizon	-11.4414
▁kilometers	-11.4415
▁technically	-11.4415
▁virtue	-11.4415
moto	-11.4417
▁confirmation	-11.4417
▁baptist	-11.4417
cies	-11.442
▁deed	-11.4422
▁isolation	-11.4424
▁pending	-11.4428
▁prisoners	-11.443
▁connective	-11.4431
▁friction	-11.4432
▁sonic	-11.4432
▁strings	-11.4434
2011	-11.4437
▁bulletin	-11.4437
▁injections	-11.4441
▁editing	-11.4442
▁dive	-11.4442
▁bran	-11.4443
amp	-11.4443
▁amateur	-11.4445
▁approve	-11.4445
▁cla	-11.4447
▁tru	-11.4449
▁ashley	-11.445
▁blocking	-11.445
▁manga	-11.4454
▁glory	-11.4456
▁fungus	-11.4457
▁marker	-11.446
▁celebrated	-11.446
▁1200	-11.4462
▁cooperative	-11.4464
▁acidic	-11.4465
▁vermont	-11.4465
▁wires	-11.4465
▁195	-11.4469
▁gown	-11.4469
▁insider	-11.447
▁pictured	-11.447
▁evolutionary	-11.4474
randomized	-11.4475
▁defining	-11.4475
there	-11.4478
yama	-11.4484
▁lounge	-11.4485
▁222	-11.449
▁educated	-11.4494
▁airplane	-11.4496
▁sang	-11.45
▁atlas	-11.45
ivity	-11.4501
▁showers	-11.4502
▁batch	-11.4504
▁kur	-11.4504
▁intervals	-11.4506
▁complement	-11.451
▁rises	-11.4511
▁375	-11.4512
▁sprint	-11.4514
▁singular	-11.452
▁wellness	-11.452
▁volcanic	-11.4526
▁tricks	-11.4528
▁verbal	-11.4528
▁mic	-11.4531
▁fetus	-11.4532
▁disposal	-11.4534
attracted	-11.4535
▁runner	-11.4535
▁scales	-11.4536
▁cookie	-11.4536
▁binary	-11.4538
▁fil	-11.4538
▁guinea	-11.4538
▁turbo	-11.4541
▁authentic	-11.4545
mph	-11.4545
600	-11.4546
▁deviation	-11.4548
▁raj	-11.4549
▁cricket	-11.4549
▁gateway	-11.4552
▁punch	-11.4559
▁vaccines	-11.4559
▁nonprofit	-11.4559
▁abundant	-11.4562
▁301	-11.4563
▁leukemia	-11.4564
▁hilton	-11.4565
▁fictional	-11.4566
chal	-11.4567
▁deficit	-11.457
▁rankings	-11.457
▁trails	-11.4574
▁lil	-11.4574
▁jc	-11.4575
pot	-11.4577
▁watts	-11.4578
▁terror	-11.4579
▁integer	-11.458
▁settlers	-11.4583
just	-11.4585
anta	-11.4585
▁warriors	-11.4586
▁depreciation	-11.4587
▁whit	-11.4588
▁rumors	-11.4589
hold	-11.459
▁alike	-11.4591
▁machinery	-11.4591
▁todd	-11.4595
▁consensus	-11.4596
▁maternal	-11.4597
▁heel	-11.4597
▁walked	-11.4598
▁cia	-11.4599
▁reflux	-11.4601
▁granite	-11.4603
brand	-11.4604
▁aqua	-11.4606
▁lover	-11.4606
consequently	-11.4608
▁pil	-11.4608
▁stove	-11.4609
▁bubble	-11.4609
ought	-11.4612
▁warn	-11.4613
▁neu	-11.4613
▁farmer	-11.4615
▁gmt	-11.4615
▁helicopter	-11.4618
▁disasters	-11.462
▁rig	-11.462
▁protects	-11.4621
▁herald	-11.4622
▁surviving	-11.4625
▁mock	-11.4627
revealing	-11.4627
▁coated	-11.4634
▁vit	-11.4635
▁1935	-11.4636
▁amenities	-11.4638
▁architectural	-11.4639
▁opponent	-11.464
▁autism	-11.4646
▁transformed	-11.4646
▁graduated	-11.4647
▁eff	-11.4649
▁bullet	-11.4649
▁accordingly	-11.465
▁bot	-11.4651
rov	-11.4653
▁idol	-11.4653
nch	-11.4656
▁deb	-11.4657
▁arctic	-11.4659
▁locally	-11.466
▁therapies	-11.4661
▁visitor	-11.4662
▁qua	-11.4662
enberg	-11.4665
▁invite	-11.4668
sourced	-11.4668
▁indianapolis	-11.4668
▁venue	-11.4669
▁underneath	-11.467
alia	-11.4673
▁productive	-11.4674
▁failing	-11.4675
▁conclude	-11.468
selecting	-11.4681
▁temporal	-11.4682
ensuring	-11.4682
portrayed	-11.4684
▁nazi	-11.4684
8°	-11.4684
▁terry	-11.4685
▁repeatedly	-11.4685
▁subtle	-11.4687
▁infantry	-11.4687
▁exclusion	-11.4689
▁surveillance	-11.469
▁illnesses	-11.469
barely	-11.469
▁jesse	-11.4692
ddle	-11.4692
▁picking	-11.4694
▁fungal	-11.4694
▁portugal	-11.4696
▁argentina	-11.4697
▁lupus	-11.4698
▁kil	-11.4699
▁goat	-11.47
▁sustained	-11.4701
▁continuously	-11.4702
▁julie	-11.4704
▁pituitary	-11.4706
▁cel	-11.4706
▁cousin	-11.4706
▁admissions	-11.4707
▁1936	-11.4707
▁frames	-11.4707
▁christians	-11.4708
▁nano	-11.4716
▁235	-11.4717
▁termination	-11.4718
▁kylie	-11.4722
ress	-11.4725
▁retreat	-11.4725
▁malibu	-11.4725
▁patches	-11.4725
▁src	-11.4725
▁kirk	-11.4727
▁reagan	-11.4728
▁peppers	-11.4731
▁collision	-11.4734
rim	-11.4734
▁highlight	-11.4735
▁equilibrium	-11.4735
▁dramatically	-11.4742
▁sid	-11.4742
▁eng	-11.4743
2004	-11.4744
whilst	-11.4744
▁switching	-11.4748
▁wyoming	-11.4748
▁inspector	-11.475
▁swan	-11.475
▁accepting	-11.4753
▁forbes	-11.4756
▁squash	-11.4756
▁sail	-11.4759
▁invoice	-11.476
▁resting	-11.4761
▁renew	-11.4761
▁nova	-11.4763
▁dissolved	-11.4764
rely	-11.4765
▁crush	-11.4767
▁automobile	-11.4769
▁norm	-11.477
▁1938	-11.4773
▁bobby	-11.4773
▁trash	-11.4774
▁physiological	-11.4776
▁thrown	-11.4777
ugh	-11.4778
▁transmit	-11.478
▁contaminated	-11.4781
▁spreading	-11.4781
▁headlines	-11.4782
▁deployment	-11.4782
▁cove	-11.4789
▁1929	-11.479
▁inquiry	-11.4791
cular	-11.4797
▁nintendo	-11.48
▁miscellaneous	-11.4801
lton	-11.4801
▁genius	-11.4803
▁drunk	-11.4804
▁personalized	-11.4805
wed	-11.4805
▁trusted	-11.4806
▁kir	-11.4807
▁infusion	-11.4809
▁wears	-11.4809
▁ami	-11.481
▁equality	-11.481
▁suppliers	-11.4812
▁gloves	-11.4817
▁arnold	-11.4817
▁chlorine	-11.4817
▁approximate	-11.4818
▁inclusion	-11.4819
▁dynamics	-11.4821
ender	-11.4825
bul	-11.4827
▁catherine	-11.4828
starred	-11.4831
▁lon	-11.4832
ali	-11.4834
▁emb	-11.484
▁stretching	-11.484
▁cigarette	-11.4841
▁obligations	-11.4844
▁networking	-11.4844
▁advances	-11.4846
▁alkaline	-11.4847
▁coli	-11.4847
▁substantially	-11.4848
▁terrorist	-11.4848
▁interpret	-11.485
▁kas	-11.4851
▁teens	-11.4851
▁porter	-11.4853
▁graduates	-11.4856
▁amanda	-11.4856
▁dissolve	-11.4859
▁chapel	-11.486
▁depot	-11.486
▁rounded	-11.4861
▁belgium	-11.4867
ations	-11.4867
▁pharmaceutical	-11.4869
▁stimulate	-11.487
▁vincent	-11.4871
▁antigen	-11.4872
▁pel	-11.4874
▁quartz	-11.4874
▁relay	-11.4874
▁218	-11.4874
▁1937	-11.4875
▁recovered	-11.4875
▁demonstration	-11.4876
▁kris	-11.4877
dian	-11.4882
▁assessor	-11.4883
rik	-11.4884
▁saudi	-11.4885
▁ventilation	-11.4886
▁rodriguez	-11.4887
▁butler	-11.4887
game	-11.4887
▁scent	-11.4893
▁ren	-11.4899
▁counting	-11.4899
onne	-11.4899
▁pencil	-11.49
▁stems	-11.49
mond	-11.4903
▁athens	-11.4904
▁monetary	-11.4904
▁lecture	-11.4908
▁scoring	-11.4908
▁1919	-11.4909
▁humor	-11.4909
▁quantum	-11.491
wall	-11.4912
▁dur	-11.4915
▁learners	-11.4916
phil	-11.4917
▁combining	-11.4917
▁originate	-11.4921
▁integral	-11.4922
▁dew	-11.4923
mod	-11.4926
▁cinnamon	-11.4931
▁lieutenant	-11.4934
▁kills	-11.4935
▁marginal	-11.4938
messages	-11.4942
120	-11.4944
▁opioid	-11.4946
▁modest	-11.4946
▁shame	-11.4948
▁legitimate	-11.4951
▁restored	-11.4952
▁percentile	-11.4954
eria	-11.4954
▁crow	-11.4954
lant	-11.4955
dell	-11.4955
▁sculpture	-11.4958
▁replication	-11.4958
nick	-11.496
▁severely	-11.4961
▁bluetooth	-11.4962
▁trapped	-11.4964
▁roasted	-11.4965
▁evident	-11.4965
▁flies	-11.4965
▁texts	-11.4969
▁consequence	-11.4969
▁laundry	-11.497
▁excellence	-11.4973
▁rider	-11.4977
▁305	-11.498
▁limiting	-11.4983
▁blunt	-11.4987
▁tingling	-11.4988
▁preferences	-11.4992
▁athlete	-11.4992
▁prescribe	-11.4993
foot	-11.4994
▁blair	-11.4995
uke	-11.4996
▁potent	-11.4996
▁hughes	-11.4996
▁ovarian	-11.5001
▁spur	-11.5005
kat	-11.5006
▁seafood	-11.5008
▁bab	-11.5008
▁holland	-11.5009
▁detective	-11.5011
▁considerably	-11.5012
▁elephant	-11.5013
▁cir	-11.5017
▁chambers	-11.5018
▁tide	-11.5021
▁arg	-11.5025
▁richie	-11.5026
▁handy	-11.5026
▁mesh	-11.5027
▁curry	-11.5028
▁sierra	-11.5032
place	-11.5032
▁springfield	-11.5035
▁meyer	-11.5038
sley	-11.5039
▁aired	-11.5042
▁climbing	-11.5042
▁decreasing	-11.5043
▁rhode	-11.5046
owing	-11.5046
▁swap	-11.5047
▁pillow	-11.5051
▁messenger	-11.5052
▁reasonably	-11.5052
craft	-11.5056
▁217	-11.5057
▁banner	-11.5057
▁startup	-11.5061
▁elk	-11.5069
▁configure	-11.5069
▁flare	-11.5069
▁strikes	-11.507
▁salon	-11.5075
lith	-11.5077
▁bryan	-11.5078
▁lithium	-11.5082
▁musicians	-11.5084
▁embedded	-11.5086
▁beverage	-11.5092
▁pins	-11.5097
▁shoulders	-11.51
▁packet	-11.5101
▁odds	-11.5101
▁competitors	-11.5102
▁ramp	-11.5103
▁surround	-11.5103
▁junk	-11.5103
▁melting	-11.5106
▁katie	-11.5109
▁releasing	-11.511
tier	-11.5111
▁psi	-11.5113
▁combinations	-11.5116
▁prevented	-11.512
▁orbital	-11.5121
▁mapping	-11.5125
▁cosmetic	-11.5131
▁esophagus	-11.5131
▁osteoporosis	-11.5132
▁marry	-11.5132
▁travels	-11.5134
▁suv	-11.5134
▁tackle	-11.5135
▁pun	-11.5135
▁glo	-11.5136
▁brook	-11.5138
▁exhibition	-11.5138
▁deductions	-11.5138
▁subdivision	-11.514
▁viewer	-11.514
▁depict	-11.514
▁manually	-11.5142
▁cult	-11.5148
paired	-11.5149
▁preliminary	-11.5151
▁3000	-11.5153
▁miracle	-11.5155
ryl	-11.5156
▁coll	-11.5159
▁superman	-11.5164
▁shipped	-11.5165
▁marketplace	-11.5166
▁reserves	-11.5167
▁performs	-11.5169
▁roberts	-11.5172
▁makers	-11.5172
▁celtic	-11.5173
▁fro	-11.5177
health	-11.5178
▁211	-11.5178
vie	-11.5179
▁sofia	-11.518
▁corpus	-11.5182
▁goddess	-11.5183
▁implies	-11.5186
▁afterwards	-11.5188
▁predators	-11.5189
▁spoon	-11.5189
▁promised	-11.519
▁civic	-11.519
▁gran	-11.5192
▁vocabulary	-11.5192
▁kenya	-11.5195
▁pon	-11.5201
▁masses	-11.5202
▁resolved	-11.5203
▁furnace	-11.5203
▁dist	-11.5205
▁jin	-11.5205
▁mak	-11.5205
hey	-11.5206
cell	-11.5207
▁phillips	-11.5207
▁digits	-11.5209
▁abu	-11.521
▁burial	-11.521
▁resin	-11.5212
▁mari	-11.5216
▁icd	-11.5219
▁accidentally	-11.522
▁serotonin	-11.5224
▁denote	-11.5226
▁throne	-11.5227
richest	-11.5229
▁luther	-11.5231
▁variants	-11.5231
▁freight	-11.5232
▁darkness	-11.5233
ensis	-11.5233
▁lending	-11.5236
▁realistic	-11.5239
▁solved	-11.524
▁flavors	-11.5241
▁wounds	-11.5242
▁stanford	-11.5245
▁translator	-11.5245
▁adjustments	-11.5246
▁prognosis	-11.5247
▁guided	-11.5248
▁hungry	-11.5249
▁divorced	-11.525
▁milwaukee	-11.525
▁unexpected	-11.525
▁jamaica	-11.5251
▁worksheet	-11.5252
▁geographical	-11.5256
▁incision	-11.5256
2006	-11.5256
▁consistency	-11.5257
▁nee	-11.5258
dog	-11.5258
▁primer	-11.5258
▁jupiter	-11.526
▁touching	-11.5262
▁bros	-11.5263
▁223	-11.5265
▁redness	-11.527
verb	-11.5272
▁streams	-11.5275
▁tablespoons	-11.5275
▁fla	-11.5276
rolled	-11.5277
▁menopause	-11.5278
▁influential	-11.528
power	-11.5281
▁spe	-11.5281
▁hawk	-11.5282
▁ordering	-11.5282
press	-11.5283
▁suggestion	-11.5284
▁leap	-11.5286
▁florence	-11.5286
ssel	-11.5287
▁invade	-11.5292
olin	-11.5292
▁supplemental	-11.5293
▁joan	-11.5295
emerged	-11.5296
▁composer	-11.5296
▁phosphorus	-11.5296
▁descriptions	-11.5297
▁insurer	-11.5299
123	-11.53
▁capsules	-11.53
▁speaks	-11.53
▁pathology	-11.5301
▁saliva	-11.5301
▁pumpkin	-11.5302
▁mos	-11.5302
populated	-11.5302
rier	-11.5304
▁capitol	-11.5304
kourtney	-11.5305
▁biblical	-11.5308
▁triggers	-11.5311
▁regimen	-11.5312
▁extraordinary	-11.5313
▁cherokee	-11.5313
▁monkey	-11.5314
color	-11.5317
nier	-11.5317
▁sophisticated	-11.5318
sisted	-11.5318
face	-11.5319
▁290	-11.532
▁conductor	-11.532
rib	-11.5321
genic	-11.5321
▁paradise	-11.5323
▁dressed	-11.5328
▁drought	-11.533
▁hazards	-11.5332
▁holmes	-11.5334
▁bait	-11.5335
▁lucy	-11.5335
▁ruin	-11.5337
categories	-11.5338
▁grande	-11.5341
▁meaningful	-11.5341
▁implant	-11.5341
▁angels	-11.5345
▁imbalance	-11.5347
oke	-11.5347
▁crude	-11.5351
▁horrible	-11.5352
▁mere	-11.5353
▁thrive	-11.5359
aku	-11.5359
▁confusing	-11.5359
▁apollo	-11.5359
▁gmail	-11.5361
▁crisp	-11.5362
▁danish	-11.5362
▁handled	-11.5366
▁inhabitants	-11.5368
▁exploring	-11.5369
▁mtv	-11.5369
▁reviewer	-11.5371
leigh	-11.5371
▁britannica	-11.5374
▁spam	-11.5375
▁monument	-11.5376
▁acoustic	-11.5377
▁unclear	-11.5379
▁towel	-11.5379
▁vir	-11.538
▁forensic	-11.5382
▁welding	-11.5382
▁warmer	-11.5383
cept	-11.5385
kins	-11.5385
▁preserved	-11.5386
john	-11.5388
▁lymphoma	-11.5388
extending	-11.5389
▁recycling	-11.5391
vil	-11.5393
▁213	-11.5393
▁appliances	-11.5395
▁essence	-11.5395
▁mug	-11.5395
▁stuart	-11.5396
▁1850	-11.5396
▁organisation	-11.5397
▁prairie	-11.5398
▁renewed	-11.54
▁maturity	-11.5401
▁kam	-11.5401
▁certificates	-11.5402
▁ecology	-11.5403
▁sclerosis	-11.5405
▁intend	-11.5406
pod	-11.5407
▁falcon	-11.5407
▁spi	-11.541
▁saunders	-11.5416
gathered	-11.5417
▁299	-11.5418
▁mentor	-11.5419
sam	-11.5419
cam	-11.542
smith	-11.542
▁harmony	-11.542
▁diets	-11.5423
▁rosa	-11.5426
▁initiated	-11.5431
▁plaintiff	-11.5432
▁189	-11.5432
▁lipid	-11.5432
▁spiral	-11.5433
bcode	-11.5434
▁2020	-11.5437
▁afghanistan	-11.5437
▁bald	-11.5439
▁pumps	-11.544
atory	-11.544
product	-11.544
▁440	-11.544
▁raises	-11.5441
▁carr	-11.5444
▁strand	-11.5446
▁comparative	-11.5447
▁dresses	-11.5447
▁panama	-11.5449
▁volt	-11.5451
▁giants	-11.5454
▁chili	-11.5455
▁crawford	-11.5455
▁cathedral	-11.5456
▁insist	-11.5457
▁sys	-11.5458
▁pathways	-11.5459
▁worm	-11.5461
▁hans	-11.5464
▁226	-11.5469
bone	-11.547
▁arrange	-11.5473
▁steroid	-11.5473
▁nobel	-11.5474
▁citrus	-11.5476
▁abbreviation	-11.5476
▁loads	-11.5478
▁needles	-11.5478
▁favourite	-11.5479
▁squad	-11.548
▁governing	-11.5481
▁imported	-11.5481
▁221	-11.5485
▁249	-11.5485
▁æ	-11.5487
▁bog	-11.5487
▁moscow	-11.5488
▁picks	-11.5488
▁remarkable	-11.5491
kg	-11.5491
▁diffuse	-11.5493
▁219	-11.5495
▁berkeley	-11.5495
▁analog	-11.5495
▁withdraw	-11.5496
▁creature	-11.5497
▁premature	-11.5497
▁tablespoon	-11.5497
▁rigid	-11.5498
▁testimony	-11.5499
▁disable	-11.5502
print	-11.5502
▁preservation	-11.5505
▁reject	-11.5509
▁organize	-11.5509
dam	-11.551
▁historian	-11.5514
▁packs	-11.5516
▁anglo	-11.5518
zin	-11.5519
pine	-11.5519
▁radioactive	-11.5521
▁champions	-11.5521
▁adhesive	-11.5522
▁enforce	-11.5522
▁liquids	-11.5523
gian	-11.5524
▁anytime	-11.5525
▁229	-11.5526
▁agenda	-11.5527
struggling	-11.5527
chel	-11.5528
▁waiver	-11.553
▁vampire	-11.5531
▁kol	-11.5532
▁dubai	-11.5532
▁homeowners	-11.5537
▁stark	-11.5538
▁unc	-11.5539
▁occasions	-11.554
▁sampling	-11.5545
▁wrapped	-11.5545
▁uncomfortable	-11.5545
▁sequel	-11.5546
ement	-11.5546
lov	-11.5548
▁beloved	-11.555
▁humanity	-11.555
▁stroll	-11.5555
agi	-11.5556
▁ulcer	-11.5557
▁preschool	-11.556
lick	-11.5562
▁illustration	-11.5568
▁curtain	-11.5569
▁tribune	-11.557
250	-11.5571
▁1934	-11.5571
arch	-11.5572
▁reasoning	-11.5575
▁antique	-11.5576
▁finishing	-11.5576
▁ruth	-11.5576
▁platforms	-11.5577
ashi	-11.5578
▁1911	-11.5578
alism	-11.5581
▁dealers	-11.5582
duc	-11.5583
dem	-11.5586
▁prospect	-11.5588
▁monarch	-11.5589
▁whi	-11.5589
▁widow	-11.559
housewives	-11.559
▁surgeons	-11.5591
lain	-11.5592
ition	-11.5592
skimp	-11.5594
▁saturn	-11.5595
▁precious	-11.5596
▁lib	-11.5598
▁regiment	-11.5599
▁ballot	-11.56
▁dependence	-11.5603
rig	-11.5604
▁jumping	-11.5605
hav	-11.5606
▁tremendous	-11.5607
▁252	-11.5608
▁beating	-11.5609
▁songwriter	-11.5609
zia	-11.561
▁smartphone	-11.5615
▁conducting	-11.5617
▁multiply	-11.5618
▁washer	-11.562
▁deduct	-11.5624
▁reminder	-11.5625
▁nicholas	-11.5627
▁malignant	-11.5628
▁sells	-11.5628
▁und	-11.5629
tag	-11.5629
▁mart	-11.563
landed	-11.5632
▁endocrine	-11.5633
▁aquarium	-11.5633
kal	-11.5634
▁oakland	-11.5634
▁fahrenheit	-11.5636
▁thinks	-11.5637
▁coordinate	-11.5638
azo	-11.564
▁patron	-11.5641
2007	-11.5642
hall	-11.5642
traveled	-11.5643
▁doll	-11.5643
▁tesla	-11.5644
fil	-11.5645
▁hull	-11.5645
generating	-11.5646
▁convince	-11.5646
▁philosophical	-11.5647
▁cabbage	-11.5647
▁alignment	-11.5649
▁pierce	-11.565
▁incidents	-11.5654
▁belle	-11.5655
▁vault	-11.5655
▁mau	-11.5656
▁1870	-11.5657
ital	-11.5658
email	-11.5659
▁5000	-11.566
urs	-11.566
oria	-11.5662
▁threads	-11.5662
disambiguation	-11.5664
▁workforce	-11.5665
▁troy	-11.5667
cion	-11.5667
▁stefan	-11.5667
▁neuropathy	-11.567
▁231	-11.567
likewise	-11.5671
▁greenhouse	-11.5673
learn	-11.5675
▁thermo	-11.5676
▁chloe	-11.5676
▁worms	-11.5677
convinced	-11.5681
▁sits	-11.5682
▁tuberculosis	-11.5682
▁hosting	-11.5682
▁administer	-11.5683
▁canned	-11.5689
▁ambassador	-11.5689
heim	-11.5689
▁surge	-11.5691
▁proto	-11.5692
rell	-11.5696
omer	-11.5699
▁discontinued	-11.5701
▁attorneys	-11.5702
▁196	-11.5703
▁wealthy	-11.5705
▁spices	-11.5706
▁burger	-11.5706
▁sterling	-11.5707
▁cannon	-11.5708
▁tyr	-11.5708
▁builder	-11.5709
▁jeep	-11.5711
▁1913	-11.5711
▁epilepsy	-11.5713
▁conflicts	-11.5714
▁501	-11.5719
▁mushrooms	-11.5719
stat	-11.5721
▁connector	-11.5721
▁boiled	-11.5722
▁arterial	-11.5723
▁clot	-11.5723
▁flashcards	-11.5723
▁diploma	-11.5723
▁aesthetic	-11.5724
▁mysterious	-11.5727
▁ammonia	-11.573
▁qualifications	-11.5734
▁introducing	-11.5737
▁exams	-11.5738
▁bol	-11.5739
▁dialysis	-11.5741
▁beard	-11.5744
▁comb	-11.5745
▁poultry	-11.5745
▁maximize	-11.5746
▁wiley	-11.5746
deciding	-11.5747
▁239	-11.5748
▁mala	-11.5748
▁witch	-11.575
suggesting	-11.5752
▁logan	-11.5755
2009	-11.5757
▁spinach	-11.5758
▁hail	-11.5758
▁scout	-11.5758
▁badge	-11.576
▁belonging	-11.5762
▁colombia	-11.5763
▁ortho	-11.5767
▁homo	-11.577
▁induction	-11.5773
▁pipes	-11.5775
▁conception	-11.5777
phon	-11.578
▁mythology	-11.5782
rob	-11.5785
▁brooks	-11.579
▁contamination	-11.5796
▁counted	-11.5797
▁blonde	-11.5798
school	-11.5798
▁dialogue	-11.5799
inate	-11.58
▁intern	-11.5801
▁dwelling	-11.5802
ambi	-11.5806
▁celeb	-11.5807
▁itchy	-11.5808
▁vegetation	-11.5809
▁mainstream	-11.5809
▁uterine	-11.5809
▁firing	-11.581
somehow	-11.5811
▁cooperation	-11.5811
▁distances	-11.5812
▁siblings	-11.5812
▁grease	-11.5813
▁cleared	-11.5813
▁inexpensive	-11.5814
▁heroin	-11.5816
mount	-11.5817
▁hex	-11.5817
▁tales	-11.5817
▁martha	-11.5818
▁hormonal	-11.5821
gaining	-11.5822
ished	-11.5822
▁prophet	-11.5822
▁unity	-11.5822
▁toddler	-11.5822
▁prev	-11.5823
▁227	-11.5824
▁unnecessary	-11.5826
▁emphasize	-11.5828
▁straw	-11.5829
▁minneapolis	-11.5833
comb	-11.5835
alternatively	-11.5837
▁dryer	-11.5837
citing	-11.5838
▁stud	-11.5838
▁revenge	-11.5838
ening	-11.5839
uga	-11.5839
▁lloyd	-11.5841
▁retire	-11.5841
▁bing	-11.5844
▁shampoo	-11.5847
▁traumatic	-11.5853
▁lac	-11.5853
▁stern	-11.5855
▁gamma	-11.5856
▁whip	-11.5856
▁paintings	-11.5857
▁residency	-11.5862
kes	-11.5868
▁scr	-11.5868
▁acceleration	-11.587
▁offspring	-11.5872
▁inheritance	-11.5872
▁keen	-11.5874
▁finances	-11.5874
▁bha	-11.5874
▁livestock	-11.5874
▁compartment	-11.5875
▁eighth	-11.5876
▁appreciated	-11.5877
▁plantation	-11.5877
▁watt	-11.5878
▁bore	-11.5879
▁emotion	-11.5881
▁missions	-11.5881
pho	-11.5888
▁plat	-11.5891
▁neighbors	-11.5891
▁invitation	-11.5892
▁endangered	-11.5893
▁hz	-11.5897
▁napoleon	-11.5901
▁retina	-11.5902
▁fuse	-11.5902
▁cola	-11.5904
href	-11.5904
range	-11.5905
▁canon	-11.5909
▁sweating	-11.5909
▁thoracic	-11.591
▁thru	-11.591
▁payable	-11.5911
▁shaw	-11.5912
▁mins	-11.5914
heavier	-11.5914
▁cod	-11.5915
▁emmy	-11.5917
▁freely	-11.5918
▁geometry	-11.592
▁inhibitor	-11.592
▁insertion	-11.5921
pursuant	-11.5923
▁minus	-11.5924
▁pulp	-11.5926
kit	-11.5927
▁tomb	-11.5929
▁gazette	-11.5932
▁halloween	-11.5934
▁swallow	-11.5938
reportedly	-11.5939
▁coaches	-11.5942
▁excluded	-11.5943
▁499	-11.5943
▁thorough	-11.5944
▁economist	-11.5945
▁jpg	-11.5953
▁combustion	-11.5954
▁doug	-11.5956
▁glenn	-11.5957
unt	-11.5959
▁possibilities	-11.5959
▁224	-11.596
▁1932	-11.5963
▁technological	-11.5963
▁mum	-11.5964
▁sullivan	-11.5965
quote	-11.5965
▁neural	-11.5965
▁joshua	-11.5966
▁depressed	-11.5966
▁sheer	-11.5966
▁loc	-11.5966
lap	-11.5967
wyn	-11.5967
▁peas	-11.5968
word	-11.5973
▁elaborate	-11.5973
▁245	-11.5974
▁lor	-11.5977
▁nhl	-11.5977
▁connects	-11.5977
liable	-11.5978
▁derive	-11.5978
▁markers	-11.5981
▁reynolds	-11.5981
jun	-11.5982
▁heartbeat	-11.5982
▁visibility	-11.5982
▁liquor	-11.5984
▁crane	-11.5985
▁defender	-11.5985
▁pul	-11.5986
ove	-11.5987
110	-11.5988
▁equals	-11.599
▁interference	-11.5992
itch	-11.5993
▁sickness	-11.5995
competing	-11.5996
▁thermometer	-11.5997
▁skeleton	-11.5997
▁complain	-11.5999
▁kre	-11.6001
▁transparent	-11.6002
▁naked	-11.6003
▁drove	-11.6003
spir	-11.6004
▁enroll	-11.6006
▁surf	-11.6007
▁restriction	-11.6008
▁efficiently	-11.6009
after	-11.6009
▁artistic	-11.6011
▁bernard	-11.6012
▁advancement	-11.6012
▁insufficient	-11.6013
▁pear	-11.6014
▁peaceful	-11.6015
▁steroids	-11.6016
▁montreal	-11.6016
▁elastic	-11.6017
▁satisfy	-11.6018
▁tiles	-11.6018
▁inventor	-11.6022
▁cru	-11.6024
▁hugh	-11.6026
acted	-11.6028
redirected	-11.6029
▁outdoors	-11.6029
▁cliff	-11.6033
▁staple	-11.6033
rud	-11.6035
chron	-11.6036
▁bulbs	-11.604
▁finn	-11.6041
gard	-11.6041
▁acknowledge	-11.6042
rett	-11.6044
▁exceptional	-11.6046
▁rage	-11.6046
▁fern	-11.605
▁bj	-11.6052
▁accountant	-11.6053
gus	-11.6053
▁splash	-11.6054
▁peru	-11.6054
check	-11.6055
▁232	-11.6055
▁sensors	-11.6057
▁favorites	-11.606
▁rein	-11.6061
▁madrid	-11.6062
▁nouns	-11.6063
worm	-11.6064
▁leonard	-11.6065
▁delhi	-11.6066
▁mole	-11.6069
▁303	-11.6069
zie	-11.607
▁720	-11.607
▁fitted	-11.6071
▁volumes	-11.6071
▁collector	-11.6071
▁aquatic	-11.6072
excluding	-11.6072
▁extensions	-11.6074
▁hygiene	-11.6074
▁oval	-11.6074
▁flora	-11.6075
▁cocaine	-11.6076
▁venous	-11.6076
▁colonel	-11.6076
▁ventricular	-11.6076
hem	-11.6079
hara	-11.6079
111	-11.6079
aceae	-11.608
dominated	-11.6081
ink	-11.6081
▁merchandise	-11.6082
girl	-11.6083
▁sticks	-11.6085
▁confront	-11.6086
▁304	-11.6088
▁neuron	-11.609
sale	-11.609
▁fabulous	-11.6091
▁cope	-11.6091
▁dre	-11.6092
▁marina	-11.6092
wise	-11.6092
▁registrant	-11.6093
▁aortic	-11.6093
▁520	-11.6093
ister	-11.6094
▁pipeline	-11.6094
▁badly	-11.6094
▁jm	-11.6096
▁indo	-11.6097
▁1860	-11.6097
▁trait	-11.6099
▁downward	-11.6099
▁quantitative	-11.6099
▁championships	-11.6099
eva	-11.6101
▁hydraulic	-11.6101
▁excuse	-11.6102
▁mlb	-11.6102
gul	-11.6103
number	-11.6103
▁marathon	-11.6105
▁1912	-11.6105
rish	-11.6106
▁lions	-11.6107
▁911	-11.6108
▁sacramento	-11.6108
▁bradley	-11.6109
▁lucas	-11.611
▁corruption	-11.611
▁calculating	-11.611
▁ə	-11.611
▁265	-11.6111
stan	-11.6111
▁lacking	-11.6113
uka	-11.6113
▁knees	-11.6115
mari	-11.6117
▁beneficiary	-11.6117
▁grilled	-11.6118
▁nam	-11.612
▁soc	-11.612
▁rebellion	-11.612
amongst	-11.6122
▁brakes	-11.6124
▁187	-11.6125
▁sanders	-11.6125
▁vic	-11.6128
▁540	-11.6128
cro	-11.6133
▁ignored	-11.6136
▁politician	-11.6137
group	-11.6139
▁amsterdam	-11.6139
▁kyle	-11.614
▁remainder	-11.614
▁edwards	-11.614
▁safer	-11.6141
▁lesion	-11.6141
ancy	-11.6141
▁pitcher	-11.6143
▁iris	-11.6144
▁medi	-11.6145
▁hopkins	-11.6145
▁terrain	-11.6146
▁ruler	-11.6147
▁kern	-11.6147
▁dem	-11.6147
▁cows	-11.6148
▁sequences	-11.6148
stor	-11.6148
▁pray	-11.6149
vul	-11.6149
▁restart	-11.615
▁presidency	-11.615
▁vendors	-11.6151
2005	-11.6152
▁projected	-11.6153
▁kun	-11.6154
▁halo	-11.6154
▁dll	-11.6156
▁crossed	-11.6157
▁gru	-11.6157
▁interventions	-11.6158
▁hardy	-11.6159
▁memphis	-11.616
▁770	-11.6161
▁315	-11.6163
▁corners	-11.6165
▁avocado	-11.6168
sser	-11.6169
▁swallowing	-11.617
▁initiate	-11.6172
▁streak	-11.6173
▁chronicle	-11.6174
▁camping	-11.6175
▁cardi	-11.6177
oul	-11.6178
▁jerusalem	-11.6178
▁wounded	-11.6179
▁iconic	-11.6181
▁monitored	-11.6182
▁soils	-11.6183
achieving	-11.6183
▁ibm	-11.6183
▁honour	-11.6184
▁wallace	-11.6185
▁pigment	-11.6185
▁baldwin	-11.6186
ometer	-11.6187
has	-11.6189
▁ø	-11.6193
▁ancestors	-11.6196
ides	-11.6196
▁impacts	-11.6196
▁adjustable	-11.6198
▁booth	-11.6204
▁photosynthesis	-11.6208
▁gregor	-11.621
▁forty	-11.6211
▁recurrent	-11.6212
▁hopes	-11.6212
love	-11.6214
▁420	-11.6214
▁villages	-11.6214
west	-11.6215
▁marco	-11.6218
▁jungle	-11.6219
▁behave	-11.6222
103	-11.6226
▁tummy	-11.6227
▁rabbits	-11.6228
▁415	-11.623
▁lightly	-11.6231
▁mama	-11.6232
▁fires	-11.6234
▁spike	-11.6234
▁nightmare	-11.6237
▁brazilian	-11.6237
▁specs	-11.6239
▁foul	-11.624
dig	-11.6241
▁coefficient	-11.6242
▁walnut	-11.6244
▁corrosion	-11.6244
ural	-11.6246
▁312	-11.6248
▁kara	-11.6249
▁psychiatry	-11.625
▁lyme	-11.625
▁converting	-11.625
▁felony	-11.6251
▁burke	-11.6252
▁buses	-11.6253
▁python	-11.6253
9°	-11.6255
price	-11.6255
▁plumbing	-11.6256
ime	-11.6257
kov	-11.6259
▁render	-11.6259
wald	-11.6261
▁suits	-11.6264
700	-11.6264
▁shepherd	-11.6265
▁neighbor	-11.6266
▁pee	-11.6267
achi	-11.6268
▁injected	-11.627
▁pancreatic	-11.6271
▁bother	-11.6275
▁cancers	-11.6275
▁institutional	-11.628
▁cottage	-11.628
▁ladder	-11.6281
▁gau	-11.6281
▁nissan	-11.6283
▁hue	-11.6284
▁gpa	-11.6285
▁intersection	-11.6287
▁bron	-11.6288
▁1600	-11.6289
▁melissa	-11.6289
▁cyp	-11.6289
▁gibson	-11.6289
▁sqft	-11.6293
weighted	-11.6299
▁antioxidant	-11.6299
▁authentication	-11.6299
▁washed	-11.6302
▁smoked	-11.6305
▁sores	-11.6306
▁cables	-11.6308
▁birmingham	-11.6309
▁aunt	-11.6312
▁zombie	-11.6314
▁234	-11.6315
▁nomination	-11.6316
▁submarine	-11.6322
▁darker	-11.6323
▁nike	-11.6324
▁bitcoin	-11.6324
▁journalist	-11.6324
▁refined	-11.6325
▁cleaned	-11.6325
▁microscope	-11.6328
▁slab	-11.6329
▁bart	-11.6331
▁866	-11.6333
▁paperback	-11.6334
pus	-11.6334
▁geology	-11.6336
shortness	-11.6336
▁scared	-11.6337
▁reimbursement	-11.6338
▁unwanted	-11.6338
park	-11.6339
▁380	-11.6344
▁gums	-11.6346
▁elevator	-11.6346
▁renewable	-11.635
▁improves	-11.635
lich	-11.6352
▁overtime	-11.6355
▁compost	-11.6356
ular	-11.6356
tory	-11.6357
▁stereo	-11.6357
▁lever	-11.6358
▁mir	-11.6361
▁recipients	-11.6362
▁bailey	-11.6363
▁intact	-11.6364
▁healthier	-11.6364
▁missile	-11.6365
igan	-11.6366
▁biol	-11.6367
▁333	-11.6369
▁grandfather	-11.637
▁lobe	-11.6372
▁beckham	-11.6373
▁schedules	-11.6376
▁feminine	-11.6378
▁pressing	-11.6378
▁assumption	-11.6379
▁spectacular	-11.638
▁reproduce	-11.6381
▁loyal	-11.6383
▁canvas	-11.6384
▁upward	-11.6385
surprisingly	-11.6385
▁woo	-11.6386
dge	-11.6387
▁boulevard	-11.6395
▁circles	-11.6398
tax	-11.6403
▁shar	-11.6408
nnie	-11.6409
▁standardized	-11.6411
▁investigations	-11.6412
1996	-11.6412
▁370	-11.6412
▁mustard	-11.6413
▁gardening	-11.6415
▁democrat	-11.6415
▁alerts	-11.6416
▁relaxed	-11.6416
sec	-11.6422
▁plugin	-11.6422
▁traded	-11.6424
▁calvin	-11.6424
sub	-11.6425
cur	-11.6427
▁tuna	-11.6427
rail	-11.6427
▁amendments	-11.6429
▁distribute	-11.6429
▁posture	-11.643
▁ethnicity	-11.6431
▁melbourne	-11.6431
▁unified	-11.6432
▁inbox	-11.6432
▁aerobic	-11.6434
▁benz	-11.6434
▁sca	-11.6435
▁expenditure	-11.6436
▁buttons	-11.6438
▁subsection	-11.644
▁joel	-11.6441
▁ethanol	-11.6442
▁helmet	-11.6443
▁228	-11.6443
▁barcelona	-11.6444
▁donation	-11.6446
▁assert	-11.6447
▁fairy	-11.6449
real	-11.6449
▁dopamine	-11.645
▁milli	-11.6453
▁delicate	-11.6455
explaining	-11.6463
eye	-11.6465
ump	-11.6466
▁ivy	-11.6466
▁grape	-11.6467
▁quilt	-11.6476
zing	-11.6477
▁surrender	-11.6478
▁hale	-11.6485
▁glu	-11.6485
▁wiring	-11.6486
▁mist	-11.6486
photo	-11.6487
▁sla	-11.6489
▁hbo	-11.6489
grass	-11.649
▁butterfly	-11.6491
▁shortcut	-11.6493
▁socks	-11.6494
▁dull	-11.6494
▁probation	-11.6495
▁reservations	-11.6495
▁colorful	-11.6497
▁laying	-11.6497
▁sustain	-11.6498
▁nigeria	-11.6498
▁scha	-11.6498
▁witnesses	-11.6499
▁zen	-11.6499
▁pollen	-11.6499
▁overwhelming	-11.6501
pend	-11.6502
▁cucumber	-11.6503
apr	-11.6503
▁elm	-11.6504
▁coupons	-11.6504
icing	-11.6504
▁contacted	-11.6505
▁sav	-11.6507
doc	-11.6508
▁crafts	-11.6508
▁copd	-11.6509
▁950	-11.6509
▁merge	-11.6513
▁holly	-11.6517
cop	-11.6518
▁phases	-11.6521
▁locks	-11.6523
▁astronomy	-11.6524
▁translate	-11.6525
▁reactive	-11.6526
mail	-11.6526
pping	-11.6527
▁conditioner	-11.6528
▁hiking	-11.6529
▁bonding	-11.6531
fortunately	-11.6532
▁grammy	-11.6533
▁gradient	-11.6533
▁innocent	-11.6534
▁pools	-11.6535
▁propose	-11.6535
anza	-11.6538
▁milan	-11.6538
▁peptide	-11.6538
▁dub	-11.6538
▁piston	-11.6539
▁desirable	-11.654
▁accreditation	-11.6543
▁specimen	-11.6544
▁prefix	-11.6545
▁finale	-11.6546
▁switches	-11.6547
▁booster	-11.6547
▁cysts	-11.6548
script	-11.6549
dex	-11.6551
▁enlarge	-11.6551
▁scho	-11.6551
▁naming	-11.6553
▁groove	-11.6554
▁quart	-11.6554
▁sporting	-11.6555
▁mach	-11.6555
▁carrots	-11.6557
▁definitive	-11.6557
▁tribal	-11.6557
rap	-11.6558
▁commentary	-11.6561
version	-11.6562
▁trending	-11.6562
▁modeling	-11.6572
▁asleep	-11.6572
▁guild	-11.6574
▁stub	-11.6577
▁delivers	-11.6578
▁expose	-11.6578
▁researcher	-11.6579
▁loyalty	-11.6582
▁coalition	-11.6582
▁1040	-11.6582
pad	-11.6583
▁stein	-11.6583
▁bees	-11.6584
▁damp	-11.6593
▁endorsement	-11.6594
▁maxim	-11.6596
nish	-11.6597
fat	-11.6599
▁darwin	-11.6604
position	-11.6604
iner	-11.6606
hadid	-11.6607
▁genesis	-11.6607
▁successor	-11.6608
▁papa	-11.6609
▁lance	-11.6611
cou	-11.6611
▁lumbar	-11.662
▁merger	-11.662
▁devoted	-11.6621
▁fountain	-11.6621
▁compatibility	-11.6622
▁mickey	-11.6624
▁infect	-11.6624
▁238	-11.6624
lid	-11.6626
▁welsh	-11.6628
▁rupture	-11.663
comp	-11.6631
▁lau	-11.6631
▁bloodstream	-11.6634
▁barriers	-11.6634
▁chop	-11.6635
▁sud	-11.6635
▁forgotten	-11.6637
live	-11.6644
damaging	-11.6646
▁£2	-11.6646
▁sip	-11.6646
▁fancy	-11.6647
atter	-11.6648
▁schizophrenia	-11.665
▁sting	-11.6653
▁privilege	-11.6655
▁statutory	-11.6656
pha	-11.6657
▁shy	-11.6657
▁gout	-11.6661
media	-11.6662
▁295	-11.6662
▁variance	-11.6662
▁outbreak	-11.6663
▁preceding	-11.6666
joined	-11.6669
▁188	-11.667
lines	-11.6673
▁877	-11.6673
▁sul	-11.6674
▁workshop	-11.6675
▁monk	-11.6676
▁realm	-11.6677
▁astro	-11.6678
▁hwy	-11.6678
stream	-11.6684
▁pint	-11.6684
▁taco	-11.6688
▁muslims	-11.6689
▁progesterone	-11.6689
ways	-11.669
▁arabia	-11.669
▁reuters	-11.6694
gol	-11.6696
keeper	-11.6696
▁fermentation	-11.6696
▁hung	-11.6699
▁polymer	-11.6699
▁sooner	-11.6699
▁telescope	-11.67
▁harassment	-11.6701
lux	-11.6701
▁restrict	-11.6702
▁symbolic	-11.6702
▁1915	-11.6705
▁cancelled	-11.6706
▁hiding	-11.6706
switched	-11.6707
▁gravel	-11.6707
▁237	-11.6709
▁relaxation	-11.6711
▁basil	-11.6712
▁rides	-11.6712
web	-11.6713
ario	-11.6713
▁calf	-11.6716
▁reddit	-11.6716
yes	-11.6716
▁gust	-11.6717
mad	-11.6718
▁courage	-11.6718
tics	-11.672
▁chap	-11.6721
▁paw	-11.6722
lea	-11.6724
bach	-11.6724
▁mediated	-11.6728
▁governmental	-11.673
▁exc	-11.673
▁cycling	-11.6731
▁fries	-11.6732
▁gilbert	-11.6738
▁technicians	-11.6739
▁1922	-11.6741
▁186	-11.6742
▁stunt	-11.6744
▁tent	-11.6746
ogenic	-11.6746
▁fade	-11.6747
▁ozone	-11.6747
▁priced	-11.6749
▁fel	-11.6751
▁aerial	-11.6751
▁assay	-11.6751
▁1931	-11.6752
▁infinite	-11.6753
▁humid	-11.6757
atch	-11.676
identifies	-11.6762
▁253	-11.6764
▁stairs	-11.6766
▁stimulus	-11.6766
vari	-11.6767
▁dosing	-11.6768
▁martial	-11.6768
▁tightly	-11.6769
▁inactive	-11.6769
▁exhibits	-11.6771
▁implied	-11.6773
▁dent	-11.6774
▁vest	-11.678
▁espanol	-11.6781
▁seating	-11.6783
▁nicotine	-11.6784
barack	-11.6784
▁cli	-11.6784
▁yang	-11.6785
▁evaluating	-11.6786
▁enclosed	-11.6786
▁homework	-11.6786
mini	-11.6791
▁revival	-11.6796
▁endless	-11.6797
▁sketch	-11.6799
▁launches	-11.6799
▁bleach	-11.68
renamed	-11.6801
▁saga	-11.6803
▁197	-11.6803
▁squeeze	-11.6805
▁cher	-11.6811
▁socialist	-11.6812
▁pursuit	-11.6812
▁disadvantages	-11.6813
jack	-11.6814
▁carpenter	-11.6817
2001	-11.6818
▁425	-11.6823
▁atrial	-11.6823
▁illustrate	-11.6824
▁lunar	-11.6826
▁precisely	-11.6826
ering	-11.6827
▁pedal	-11.6829
▁historians	-11.6829
▁iceland	-11.6831
▁focal	-11.6832
▁suppress	-11.6832
▁193	-11.6832
zone	-11.6832
▁fears	-11.6833
▁deny	-11.6834
filmed	-11.6836
ips	-11.6839
bla	-11.684
▁inadequate	-11.684
▁sympathetic	-11.684
▁intermittent	-11.6842
▁233	-11.6844
▁mentally	-11.6845
▁pressed	-11.6847
▁invalid	-11.6848
ubi	-11.6851
▁cheat	-11.6851
▁saddle	-11.6854
▁salem	-11.6855
▁clue	-11.6855
▁ukraine	-11.6856
▁eagles	-11.6856
▁pont	-11.686
▁meditation	-11.6861
▁254	-11.6861
▁1921	-11.6862
▁assurance	-11.6863
▁rebel	-11.6863
amide	-11.6863
▁010	-11.6865
▁julia	-11.6867
▁supportive	-11.6869
▁pep	-11.6869
▁revelation	-11.6869
ener	-11.6872
▁bern	-11.6873
▁1925	-11.6874
▁neighborhoods	-11.6875
▁ignition	-11.6877
▁enhancement	-11.6878
▁lactose	-11.6878
▁191	-11.6878
▁favorable	-11.6879
▁runway	-11.6879
▁apples	-11.6879
had	-11.688
▁supporters	-11.688
900	-11.6882
action	-11.6883
engaging	-11.6885
▁aide	-11.6886
▁demon	-11.6887
▁myths	-11.6891
▁diving	-11.6894
▁voiced	-11.6894
▁olivia	-11.6894
▁approx	-11.6896
▁singh	-11.6897
▁minecraft	-11.6898
rec	-11.6898
▁expired	-11.6898
▁bookmark	-11.6899
ologist	-11.69
▁285	-11.69
▁1928	-11.6902
▁twilight	-11.6902
▁bmw	-11.6903
first	-11.6905
▁shah	-11.6905
▁abundance	-11.6908
▁swamp	-11.691
▁violet	-11.691
▁exotic	-11.691
metry	-11.6911
▁wagon	-11.6913
▁validity	-11.6913
metre	-11.6914
▁premises	-11.6916
▁760	-11.6919
▁formulas	-11.6921
▁sou	-11.6921
nder	-11.6922
▁unconscious	-11.6922
▁survivors	-11.6928
▁bennett	-11.693
▁boast	-11.6933
▁corrections	-11.6933
berger	-11.6935
▁1111	-11.6936
▁251	-11.6936
▁proportional	-11.6936
▁algorithm	-11.6936
▁diane	-11.6937
▁transported	-11.6939
▁limitation	-11.6939
▁spatial	-11.694
boro	-11.694
▁candle	-11.6941
▁yrs	-11.6942
▁sem	-11.6943
baum	-11.6943
▁nominations	-11.6944
wing	-11.6945
▁gabriel	-11.6949
▁axle	-11.695
▁thorn	-11.695
nard	-11.695
▁curl	-11.695
inski	-11.6952
▁diffusion	-11.6955
▁bengal	-11.6956
▁costly	-11.6961
▁equations	-11.6962
▁isle	-11.6962
666	-11.6964
ucci	-11.6965
▁acronym	-11.6966
▁residual	-11.6967
▁awkward	-11.697
▁overweight	-11.6971
▁irrigation	-11.6972
▁isaac	-11.6973
▁turbine	-11.6973
plan	-11.6974
▁thinner	-11.6978
▁armstrong	-11.6978
▁tourists	-11.6981
▁israeli	-11.6984
▁inclusive	-11.6984
▁dublin	-11.6985
▁instrumental	-11.6986
▁glow	-11.6986
lands	-11.6986
report	-11.6987
▁olympics	-11.6989
▁outpatient	-11.6991
▁legends	-11.6992
▁broccoli	-11.6993
▁attitudes	-11.6994
▁formally	-11.6997
▁cheek	-11.6997
▁maritime	-11.7002
ifer	-11.7003
seemingly	-11.7004
▁manuscript	-11.7007
▁conclusions	-11.7008
sted	-11.7008
▁token	-11.7009
▁retailers	-11.7011
▁proceeds	-11.7013
wire	-11.7014
spot	-11.7015
stre	-11.7015
residing	-11.7015
▁bos	-11.7017
▁ritual	-11.7019
hardly	-11.7019
▁appraisal	-11.702
2002	-11.702
order	-11.702
ibility	-11.702
▁dep	-11.7021
▁248	-11.7022
▁exert	-11.7022
▁269	-11.7023
▁trout	-11.7024
▁bracket	-11.7025
bill	-11.7025
atus	-11.7029
▁surveys	-11.703
109	-11.7031
▁interpreted	-11.7034
▁fas	-11.7036
▁carlos	-11.7036
call	-11.7036
▁berries	-11.7037
sphere	-11.7041
▁430	-11.7041
▁cease	-11.7042
▁powell	-11.7042
▁rug	-11.7043
opathy	-11.7043
▁dermatitis	-11.7044
▁lone	-11.7047
▁236	-11.7047
▁pus	-11.7051
▁parasites	-11.7053
102	-11.7054
▁primitive	-11.7056
▁nathan	-11.7057
▁kenneth	-11.7057
▁spicy	-11.7058
105	-11.7062
▁holders	-11.7065
▁voices	-11.7065
▁pier	-11.7066
▁198	-11.7067
▁electromagnetic	-11.7067
▁alloy	-11.7069
▁liner	-11.7071
▁cindy	-11.7075
▁indicators	-11.7077
skin	-11.7078
▁haul	-11.7079
▁clearing	-11.708
▁grapes	-11.7081
▁num	-11.7082
▁tremor	-11.7085
▁parental	-11.7085
▁typ	-11.7085
▁erik	-11.7088
▁disagree	-11.7089
▁wanna	-11.7097
▁romans	-11.7098
▁toned	-11.7098
▁genealogy	-11.71
discusses	-11.71
unk	-11.7103
▁torn	-11.7105
best	-11.7105
▁addressing	-11.7105
▁homeland	-11.7107
him	-11.7108
km	-11.7108
▁cataract	-11.7109
▁gallbladder	-11.7111
encouraging	-11.7111
▁cocktail	-11.7113
▁detox	-11.7113
▁1905	-11.7113
▁distal	-11.7115
▁owl	-11.7116
▁subjective	-11.7117
lated	-11.7117
▁detector	-11.7119
▁designers	-11.712
▁ecosystem	-11.712
▁logged	-11.7124
▁getaway	-11.7127
tip	-11.7128
▁yields	-11.7132
▁congestion	-11.7133
cel	-11.7133
oku	-11.7135
▁infrared	-11.7138
179	-11.7138
▁kurt	-11.7138
▁transient	-11.7138
mous	-11.7146
▁wedge	-11.7151
▁hog	-11.7152
that	-11.7152
year	-11.7156
▁1926	-11.7157
▁municipalities	-11.7159
▁guards	-11.7159
▁siege	-11.716
saur	-11.716
neurotransmitter	-11.7162
▁1927	-11.7164
▁rebecca	-11.7166
▁clutch	-11.7167
▁cain	-11.7167
▁vitro	-11.717
ree	-11.7173
▁walks	-11.7173
used	-11.7175
▁abb	-11.7177
gun	-11.7178
▁upright	-11.7178
making	-11.7179
▁rehab	-11.7181
▁synonym	-11.7184
▁til	-11.7185
▁flea	-11.7185
▁solvent	-11.7187
▁vine	-11.7191
▁teenage	-11.7192
depicted	-11.7196
▁tilt	-11.7196
ume	-11.7196
▁hillary	-11.7197
▁statutes	-11.7197
suited	-11.7198
▁medicinal	-11.7199
▁finland	-11.7202
▁chen	-11.7205
▁tommy	-11.7206
▁281	-11.7207
miss	-11.7208
186	-11.7208
wherever	-11.7209
140	-11.7212
▁coaching	-11.7212
▁lottery	-11.7213
cephal	-11.7216
▁novels	-11.7216
▁246	-11.7216
▁reel	-11.7217
▁performances	-11.7221
▁blessing	-11.7221
▁queens	-11.7222
▁eleven	-11.7222
▁blossom	-11.7224
url	-11.7225
▁802	-11.7225
black	-11.7226
▁tran	-11.7229
▁duplicate	-11.7231
▁cyto	-11.7232
▁stamps	-11.7232
▁watches	-11.7233
halfway	-11.7234
607	-11.7234
▁plea	-11.7235
▁sticky	-11.7236
▁tactics	-11.7238
▁grandmother	-11.7239
▁individually	-11.7239
tab	-11.724
▁wang	-11.7242
▁noon	-11.7242
▁terrorism	-11.7242
▁pom	-11.7243
▁palmer	-11.7243
843	-11.7244
ales	-11.7244
▁cigarettes	-11.7246
▁rally	-11.7247
▁ovulation	-11.7249
▁kot	-11.7252
▁planner	-11.7256
▁dylan	-11.7258
▁participant	-11.7259
▁decor	-11.7259
etti	-11.726
▁broth	-11.7261
▁denial	-11.7262
eed	-11.7263
▁carson	-11.7269
teri	-11.7274
commissioned	-11.7275
▁troll	-11.7275
▁stevens	-11.7276
▁gala	-11.7277
▁crushed	-11.7278
▁patio	-11.7279
▁limestone	-11.7279
▁affiliate	-11.728
▁sliding	-11.7282
▁inhibition	-11.7283
▁inhibit	-11.7284
▁modes	-11.7288
circ	-11.7288
▁derivative	-11.729
preceded	-11.7294
▁methodology	-11.7297
▁terra	-11.73
▁buff	-11.73
blast	-11.7304
▁cereal	-11.731
▁stall	-11.7313
▁suck	-11.7315
▁shifts	-11.7316
▁bil	-11.7316
▁revenues	-11.7318
previous	-11.7322
▁1923	-11.7322
2003	-11.7323
▁smiles	-11.7323
▁1865	-11.7325
▁bloody	-11.7327
rose	-11.7328
verse	-11.733
fact	-11.7334
▁510	-11.7335
▁expressions	-11.7335
▁riot	-11.7336
▁operative	-11.7337
tell	-11.7338
▁taxation	-11.7339
wear	-11.7339
▁640	-11.7339
▁marsh	-11.7339
atic	-11.7339
▁packing	-11.7341
▁ottoman	-11.7341
▁dorsal	-11.7342
eller	-11.7343
▁wendy	-11.7344
▁521	-11.7344
▁associations	-11.7346
▁mpg	-11.7346
▁plank	-11.7346
▁hungary	-11.7348
loc	-11.7348
amara	-11.7351
▁inspect	-11.7352
▁acetaminophen	-11.7357
▁anal	-11.7357
▁ibuprofen	-11.7357
▁262	-11.7362
▁corrected	-11.7365
▁conspiracy	-11.7365
follow	-11.7366
▁extinction	-11.7369
▁govern	-11.7369
▁overlap	-11.7371
▁destiny	-11.7372
▁alumni	-11.7375
shore	-11.7375
▁fasting	-11.7377
▁spontaneous	-11.7377
▁regret	-11.7377
▁willow	-11.7378
▁beatles	-11.7378
▁licence	-11.7378
▁kale	-11.7382
▁longitude	-11.7384
▁puff	-11.7385
median	-11.7385
▁bir	-11.7385
▁vietnamese	-11.7385
inal	-11.7385
▁logistics	-11.7387
▁provinces	-11.7387
▁shear	-11.7387
▁ð	-11.7387
polis	-11.7391
▁scrub	-11.7393
▁fus	-11.7393
▁caroline	-11.7393
▁diary	-11.7393
▁snacks	-11.7394
compiled	-11.7395
▁sake	-11.7396
▁cider	-11.7397
▁vowel	-11.74
▁194	-11.7402
▁pineapple	-11.7404
▁paralysis	-11.7406
▁yale	-11.7407
▁recruit	-11.7407
▁urination	-11.7407
▁forgot	-11.7408
▁specialization	-11.7408
▁aims	-11.7411
strom	-11.7412
handful	-11.7417
▁clots	-11.7417
▁glaucoma	-11.7419
▁withholding	-11.7423
▁honors	-11.7425
▁allocation	-11.7425
▁windsor	-11.7426
▁reunion	-11.7426
elve	-11.7427
published	-11.7427
▁tattoos	-11.7427
roy	-11.743
▁edible	-11.7431
▁monica	-11.7431
▁subway	-11.7434
▁cheer	-11.7436
these	-11.7437
▁luis	-11.7438
▁titanic	-11.744
hurst	-11.744
▁meats	-11.7441
▁drake	-11.7444
▁1901	-11.7444
▁commute	-11.7445
▁battalion	-11.7446
▁analyses	-11.7447
▁breaker	-11.7447
fel	-11.7447
▁combo	-11.7448
▁poles	-11.7448
▁correspondence	-11.7449
▁simulation	-11.7449
suit	-11.7449
▁1916	-11.745
therapy	-11.7451
arriving	-11.7451
cyl	-11.7452
▁flowering	-11.7454
▁stake	-11.7454
▁pinch	-11.7456
▁boiler	-11.7456
▁thereafter	-11.7458
▁lem	-11.7459
▁survivor	-11.746
▁241	-11.7461
▁lego	-11.7462
▁kinetic	-11.7464
▁imprint	-11.7466
▁264	-11.7467
▁stains	-11.747
▁fibrosis	-11.7472
▁medic	-11.7473
▁spleen	-11.7474
▁shells	-11.7477
▁contracting	-11.7478
ury	-11.748
▁retrieve	-11.7481
▁literacy	-11.7492
user	-11.7492
▁cuban	-11.7492
▁marin	-11.7492
▁adolescents	-11.7493
▁turtles	-11.7494
▁cozy	-11.7495
green	-11.7497
▁senators	-11.7498
▁nuclei	-11.75
erton	-11.7501
▁rangers	-11.7502
▁salts	-11.7502
▁conv	-11.7503
▁kri	-11.7504
▁meth	-11.7505
▁blades	-11.7506
▁termed	-11.7509
▁bounce	-11.751
▁opposing	-11.7511
▁backing	-11.7512
▁matched	-11.7513
▁sneak	-11.7513
▁carbonate	-11.7515
▁politicians	-11.7518
▁battles	-11.7518
chrom	-11.7519
service	-11.7519
mouth	-11.7519
▁eternal	-11.752
▁disposition	-11.7521
▁scarlet	-11.7524
▁appreciation	-11.7525
▁conc	-11.7525
▁implants	-11.7526
▁gregory	-11.7526
▁laboratories	-11.7526
▁modifications	-11.7527
▁cfr	-11.753
▁premiums	-11.7533
▁airway	-11.7534
▁1080	-11.754
▁frog	-11.7541
▁rentals	-11.7542
▁screws	-11.7544
▁adviser	-11.7551
▁dir	-11.7556
broader	-11.7557
▁530	-11.7557
▁adhere	-11.7558
▁wifi	-11.7558
▁grad	-11.7559
▁expectancy	-11.7561
cosby	-11.7563
▁stressed	-11.7564
▁kane	-11.7566
▁andre	-11.7568
gene	-11.7569
▁travelling	-11.757
▁vat	-11.7571
▁untreated	-11.7571
▁278	-11.7575
▁sociology	-11.7575
stro	-11.7576
▁uncertain	-11.7577
1000	-11.7578
delivering	-11.7578
▁specialize	-11.7578
▁christina	-11.7581
raft	-11.7583
▁610	-11.7585
nomi	-11.7586
▁jelly	-11.7588
▁peg	-11.7592
▁saints	-11.7592
▁247	-11.7592
▁curse	-11.7593
▁pigs	-11.7593
▁peach	-11.7596
▁kos	-11.7597
▁heather	-11.7598
▁moderator	-11.7598
▁barnes	-11.7599
▁460	-11.7601
▁mechanic	-11.7605
▁tolerate	-11.7606
▁scattered	-11.7606
▁vil	-11.7607
enabling	-11.7609
inc	-11.7609
▁leopard	-11.7609
▁minds	-11.7613
▁accumulate	-11.7615
▁fab	-11.7616
lish	-11.7617
▁buddy	-11.7617
▁justify	-11.7619
▁combines	-11.7619
▁336	-11.7622
▁nitrate	-11.7622
▁fifteen	-11.7623
▁presenting	-11.7623
▁taiwan	-11.7627
wave	-11.7627
▁timothy	-11.7627
▁reboot	-11.7628
▁hom	-11.7629
▁jokes	-11.7629
▁vibration	-11.763
bid	-11.7634
▁responding	-11.7635
▁fellowship	-11.7636
▁lightweight	-11.7637
▁canine	-11.7637
▁570	-11.7637
▁superficial	-11.7641
▁rem	-11.7643
▁albany	-11.7646
▁mandate	-11.7646
phor	-11.7647
▁dumb	-11.7647
▁chaos	-11.7648
▁antioxidants	-11.7651
lake	-11.7653
▁campaigns	-11.7654
▁versa	-11.7657
▁refresh	-11.7659
▁lexi	-11.766
▁spit	-11.766
implementing	-11.7661
▁favour	-11.7663
▁resonance	-11.7664
▁kernel	-11.7664
▁clinics	-11.7665
▁scanner	-11.7667
▁stiffness	-11.7671
▁moses	-11.7672
▁robust	-11.7673
spec	-11.7678
▁flo	-11.7679
ador	-11.768
householder	-11.768
rator	-11.7681
▁voyage	-11.7684
▁lettuce	-11.7686
▁username	-11.7687
▁penguin	-11.7689
▁threaten	-11.7689
▁pierre	-11.7689
▁bce	-11.769
▁microscopic	-11.7691
join	-11.7691
▁impose	-11.7691
▁covenant	-11.7692
▁diamonds	-11.7694
hul	-11.7695
▁electoral	-11.7695
▁sherman	-11.7696
▁burton	-11.7696
▁clash	-11.7697
▁pointer	-11.7697
▁shiny	-11.7699
▁bizarre	-11.7699
▁daddy	-11.7702
▁strawberry	-11.7703
▁sergeant	-11.7703
▁beyonce	-11.7704
▁blockers	-11.7705
eliminating	-11.7705
stimulant	-11.7706
▁counselor	-11.7707
▁investigators	-11.7708
▁clam	-11.771
▁supplementation	-11.771
▁curb	-11.771
▁stun	-11.771
▁hemp	-11.771
▁cured	-11.7711
llen	-11.7713
▁flooding	-11.7713
▁marion	-11.7715
▁nag	-11.7715
▁garbage	-11.7717
lau	-11.7718
▁nile	-11.772
mobil	-11.7721
▁512	-11.7722
uel	-11.7723
lik	-11.7724
▁greens	-11.7726
▁ranger	-11.7727
▁indications	-11.7727
▁emit	-11.7728
▁shirts	-11.7729
▁rita	-11.773
▁legion	-11.773
shop	-11.7731
fri	-11.7733
▁aboard	-11.7734
▁pronounce	-11.7734
shaw	-11.7737
▁negotiate	-11.7738
▁observer	-11.7739
next	-11.7742
▁nominal	-11.7745
▁cushion	-11.7747
▁damon	-11.7748
▁sche	-11.7748
▁saxon	-11.7749
▁shortage	-11.775
estimated	-11.7751
rita	-11.7754
ifying	-11.7756
▁colours	-11.7757
▁stranger	-11.7758
psych	-11.7758
▁coughing	-11.7758
▁confidential	-11.7761
▁torture	-11.7761
▁brady	-11.7772
lysis	-11.7773
▁313	-11.7779
▁stools	-11.778
▁assumptions	-11.7782
▁syllables	-11.7782
▁cuff	-11.7783
▁ctrl	-11.7783
▁syringe	-11.7783
▁milligrams	-11.7783
▁cruel	-11.7784
▁passionate	-11.7785
lem	-11.7787
▁243	-11.7788
▁273	-11.7789
▁syntax	-11.7791
▁conquest	-11.7792
oxy	-11.7793
▁hypothyroidism	-11.7794
▁cooker	-11.7795
▁freshwater	-11.7798
▁liv	-11.7798
▁resorts	-11.7799
▁1861	-11.7799
pop	-11.7802
▁beck	-11.7803
▁osha	-11.7803
▁loses	-11.7804
bic	-11.7806
108	-11.7807
▁pilots	-11.7808
▁henderson	-11.7811
ripped	-11.7811
stick	-11.7812
▁prohibition	-11.7812
▁anticipated	-11.7813
▁artwork	-11.7813
▁bod	-11.7815
▁hind	-11.7815
▁planes	-11.7816
▁1924	-11.7816
▁marking	-11.7817
▁heels	-11.7819
▁dominate	-11.7823
million	-11.7823
▁neon	-11.7825
▁inmate	-11.7825
advertisement	-11.7826
▁chemo	-11.7826
833	-11.7827
▁altogether	-11.783
▁fragments	-11.783
▁moth	-11.7831
▁slices	-11.7835
▁thanksgiving	-11.7835
▁correspond	-11.7837
▁pam	-11.7837
▁ava	-11.7839
▁hungarian	-11.7839
misdiagnosis	-11.7842
youngest	-11.7843
full	-11.7845
▁parenting	-11.7847
nineteenth	-11.785
▁evenly	-11.7851
▁242	-11.7852
104	-11.7854
▁concord	-11.7855
▁pike	-11.7855
▁sharon	-11.7855
▁avengers	-11.7855
▁arlington	-11.7856
▁bloating	-11.7858
▁coarse	-11.7859
note	-11.7862
▁vale	-11.7863
▁promises	-11.7865
forcing	-11.7865
▁pea	-11.7868
▁storing	-11.787
▁genetically	-11.787
▁gorgeous	-11.7876
▁immigrant	-11.7877
▁outlets	-11.7878
0000	-11.7878
▁eugene	-11.7878
▁marcus	-11.7879
▁dividing	-11.788
▁pip	-11.7881
▁feather	-11.7882
▁mimic	-11.7888
▁commercially	-11.7889
▁ridiculous	-11.7892
▁jud	-11.7892
lets	-11.7892
▁quant	-11.7893
▁404	-11.7895
bird	-11.7898
▁signaling	-11.7899
cere	-11.7899
▁vera	-11.79
▁handles	-11.79
▁emission	-11.7901
arra	-11.7901
▁connor	-11.7903
▁enterprises	-11.7904
▁wavelength	-11.7904
▁sharks	-11.7905
▁poker	-11.7908
▁courthouse	-11.7912
cheapest	-11.7912
sten	-11.7912
triggered	-11.7915
▁diver	-11.7915
▁intestines	-11.7916
▁databases	-11.7916
▁fond	-11.7918
▁necessity	-11.7919
▁freeman	-11.792
▁compass	-11.792
▁labs	-11.792
threw	-11.792
▁hemorrhage	-11.792
▁rotor	-11.7922
▁gesture	-11.7923
▁consiste	-11.7926
▁explicit	-11.7927
▁titan	-11.793
▁remembered	-11.7932
▁jewel	-11.7932
bout	-11.7933
gam	-11.7934
▁advertisements	-11.7934
▁opponents	-11.7935
▁bleed	-11.7935
▁244	-11.7938
▁discrete	-11.794
▁drilling	-11.7941
▁gri	-11.7941
▁hardwood	-11.7944
▁parcel	-11.7944
▁wolves	-11.7944
▁rai	-11.7947
▁fem	-11.7949
stead	-11.795
▁oversee	-11.7951
7°	-11.7951
▁leaks	-11.7951
▁cabinets	-11.7952
▁viii	-11.7954
▁deli	-11.7954
than	-11.7956
south	-11.7956
▁scripture	-11.7957
hit	-11.7958
▁bombing	-11.7959
ingham	-11.796
▁disrupt	-11.7961
▁phenomena	-11.7962
▁mls	-11.7962
▁raymond	-11.7963
▁convey	-11.7964
▁benzo	-11.7965
warned	-11.7966
plex	-11.7967
▁participle	-11.7969
pul	-11.7971
▁endurance	-11.7972
▁259	-11.7972
▁claire	-11.7972
▁620	-11.7973
▁1908	-11.7975
▁sig	-11.7976
second	-11.7976
▁protocols	-11.7982
▁317	-11.7982
▁phi	-11.7983
▁intro	-11.7986
▁shelves	-11.7988
▁bmi	-11.7988
▁390	-11.7989
▁comprise	-11.7992
▁thirst	-11.7995
▁browsers	-11.7997
▁schi	-11.7997
▁sprinkle	-11.7998
▁limbs	-11.7999
nato	-11.7999
announces	-11.8
▁jacksonville	-11.8002
▁mounting	-11.8002
▁lumber	-11.8003
uric	-11.8003
▁spinning	-11.8004
owski	-11.8004
▁alto	-11.8005
▁professions	-11.8005
▁holdings	-11.8005
▁catching	-11.8005
▁germ	-11.8006
▁sewing	-11.8008
▁plateau	-11.8008
feld	-11.8013
riff	-11.8015
▁accumulated	-11.8015
▁thicker	-11.8016
iger	-11.8016
▁seals	-11.8019
▁scholarships	-11.802
▁invisible	-11.8021
https	-11.8021
omas	-11.8023
▁277	-11.8023
▁compressed	-11.8025
▁stitch	-11.8028
▁panda	-11.8029
▁charleston	-11.8029
▁preventive	-11.8029
image	-11.8029
▁hos	-11.8031
▁acrylic	-11.8032
▁harold	-11.8033
▁bumps	-11.8034
ality	-11.8035
▁camps	-11.8035
dum	-11.8036
▁tigers	-11.8036
▁pause	-11.8036
struct	-11.8038
▁dame	-11.8038
▁mantle	-11.8039
asco	-11.804
▁263	-11.8041
▁ugly	-11.8041
▁appointments	-11.8041
▁eruption	-11.8043
▁piercing	-11.8043
▁uncertainty	-11.8044
ggy	-11.8046
lowering	-11.8047
▁pharmacology	-11.8047
▁conversations	-11.8048
▁pelvis	-11.8049
▁colitis	-11.8049
▁wiktionary	-11.8051
▁awake	-11.8052
▁empirical	-11.8055
▁trustee	-11.8057
▁sup	-11.8057
idine	-11.8059
▁landmark	-11.8059
▁ufc	-11.8061
▁similarities	-11.8061
▁ethernet	-11.8061
▁momentum	-11.8065
▁302	-11.8065
▁einstein	-11.8071
▁gambling	-11.8071
▁pane	-11.8071
▁tractor	-11.8072
center	-11.8079
logy	-11.8079
▁meds	-11.8079
▁ecological	-11.808
▁lethal	-11.808
▁tex	-11.8082
▁structured	-11.8083
▁1906	-11.8083
system	-11.8083
▁paths	-11.8084
▁supra	-11.8084
case	-11.8084
▁cracks	-11.8084
▁penetrate	-11.8086
▁reactor	-11.8087
lash	-11.8089
▁integrate	-11.8089
▁lenders	-11.809
▁drained	-11.8091
▁align	-11.8095
▁sliced	-11.8095
▁terrier	-11.8095
▁carnival	-11.81
▁garment	-11.8101
▁projection	-11.8101
▁fragrance	-11.8102
hari	-11.8103
▁lobby	-11.8104
icle	-11.8104
▁exploit	-11.8104
▁eczema	-11.8109
▁cit	-11.8111
human	-11.8112
hine	-11.8112
▁4000	-11.8113
▁learner	-11.8113
▁vpn	-11.8114
▁territorial	-11.8114
▁trinity	-11.8115
▁markle	-11.8116
▁presidents	-11.8117
▁klein	-11.8119
▁spotlight	-11.8123
▁405	-11.8125
▁almond	-11.8125
▁gradual	-11.8128
clinically	-11.8128
▁279	-11.8129
▁perspectives	-11.813
▁creativity	-11.8131
▁flee	-11.8132
step	-11.8133
▁incoming	-11.8135
▁disneyland	-11.8138
holder	-11.8138
▁miniature	-11.8139
▁shareholders	-11.8142
night	-11.8146
boat	-11.8148
▁crying	-11.815
▁oath	-11.815
▁moles	-11.8152
▁murdered	-11.8152
▁feathers	-11.8155
mina	-11.8158
▁sedan	-11.8158
▁illustrations	-11.8158
arc	-11.8159
▁persuade	-11.816
▁weights	-11.8161
▁curved	-11.8162
▁mines	-11.8164
▁definite	-11.8164
nism	-11.8165
discussing	-11.8165
▁continually	-11.8167
emer	-11.8169
lph	-11.8169
▁nun	-11.8171
▁draws	-11.8172
▁complementary	-11.8173
▁sterile	-11.8174
phan	-11.8174
▁brandon	-11.8175
▁descendants	-11.8175
▁hydroxy	-11.8178
▁toast	-11.8179
▁customize	-11.8181
▁tastes	-11.8181
▁sala	-11.8183
▁motivated	-11.8186
▁examiner	-11.8189
▁drawings	-11.8191
▁compressor	-11.8192
▁pronoun	-11.8193
▁cystic	-11.8194
▁thrust	-11.8194
▁clarity	-11.8195
▁identities	-11.8198
▁catalyst	-11.8199
▁tenth	-11.8199
thanks	-11.8202
▁psychologist	-11.8203
▁cakes	-11.8207
▁cen	-11.821
▁261	-11.8212
▁owen	-11.8212
▁ninja	-11.8213
online	-11.8214
▁underwater	-11.8215
▁abscess	-11.8216
bear	-11.8217
▁feast	-11.8219
▁hpv	-11.8219
transitive	-11.822
▁560	-11.822
▁radial	-11.8221
▁aurora	-11.8222
▁unstable	-11.8223
▁incentive	-11.8223
▁sheath	-11.8224
▁hereditary	-11.8224
tailed	-11.8224
▁squat	-11.8224
▁perfume	-11.8226
▁276	-11.8227
▁hedge	-11.8227
▁allegations	-11.8227
▁mushroom	-11.8228
▁epidemic	-11.8233
▁whales	-11.8233
▁321	-11.8234
▁emerald	-11.8234
▁vocals	-11.8234
▁scanning	-11.8235
▁charitable	-11.8235
▁tragedy	-11.8237
cycl	-11.8238
▁valued	-11.8238
▁contagious	-11.824
▁proton	-11.824
▁norton	-11.8242
807	-11.8245
▁griffin	-11.8245
▁sticker	-11.8246
azi	-11.8247
▁wilderness	-11.8248
▁dove	-11.8251
▁hearts	-11.8251
▁dialect	-11.8251
akh	-11.8256
▁apparatus	-11.8261
▁beijing	-11.8262
▁subsidiary	-11.8264
▁analytical	-11.8265
▁337	-11.8265
▁analyzed	-11.8267
▁bah	-11.8267
▁470	-11.8269
▁316	-11.8272
pac	-11.8272
▁ker	-11.8274
▁alexandria	-11.8278
lying	-11.8279
take	-11.8281
▁travis	-11.8283
▁urgent	-11.8285
▁myers	-11.8287
▁osteoarthritis	-11.8287
examining	-11.8287
▁heartburn	-11.8288
▁museums	-11.8291
▁318	-11.8291
▁deposited	-11.8292
gren	-11.8292
▁idle	-11.8294
▁noticeable	-11.8295
screen	-11.8297
▁1007	-11.8297
▁specimens	-11.8297
rip	-11.8298
▁impressed	-11.8298
▁landline	-11.8299
▁sally	-11.8299
practicing	-11.83
aris	-11.8301
vision	-11.8302
▁prosecution	-11.8302
▁lymphatic	-11.8302
▁turks	-11.8303
▁wade	-11.8305
▁323	-11.8308
▁shit	-11.8308
−	-11.8311
bili	-11.8314
▁1909	-11.8315
▁orthodox	-11.8315
▁ordinance	-11.8316
▁assessing	-11.8316
▁vibrant	-11.8319
▁lynch	-11.8319
ledge	-11.832
▁307	-11.8322
▁julian	-11.8325
▁milestone	-11.8327
▁1002	-11.8327
open	-11.8328
▁rochester	-11.8328
▁assessments	-11.8331
public	-11.8331
▁carrie	-11.8331
▁jackie	-11.8333
▁wheelchair	-11.8334
▁negotiations	-11.8335
▁fulfill	-11.8338
rion	-11.834
▁heidi	-11.8341
▁lind	-11.8344
▁perennial	-11.8346
▁displacement	-11.8347
▁alberta	-11.8349
▁annoying	-11.835
▁shooter	-11.8351
▁judy	-11.8353
coat	-11.8355
▁outward	-11.8357
hak	-11.8357
loid	-11.8361
▁chewing	-11.8361
honestly	-11.8361
computed	-11.8361
▁throws	-11.8361
para	-11.8363
▁sewer	-11.8363
▁proposition	-11.8363
tended	-11.8365
▁peers	-11.8367
00000	-11.8368
▁288	-11.8371
▁intolerance	-11.8372
▁sued	-11.8373
crohn	-11.8374
▁squadron	-11.8375
▁comparisons	-11.8376
▁fighters	-11.8377
▁poems	-11.8381
▁destructive	-11.8381
rill	-11.8382
▁epithelial	-11.8382
▁transfusion	-11.8384
rox	-11.8385
uchi	-11.8387
▁drip	-11.8387
▁dept	-11.8388
▁enacted	-11.8388
▁volcanoes	-11.8389
▁tara	-11.8389
▁schema	-11.8389
▁valuation	-11.8391
▁267	-11.8392
▁uranium	-11.8393
▁mortar	-11.8394
▁batter	-11.8394
▁solomon	-11.8396
▁tcp	-11.84
cele	-11.84
auto	-11.8401
▁recordings	-11.8402
▁obese	-11.8403
▁ellis	-11.8407
▁dow	-11.8407
explicitly	-11.8408
▁stimulating	-11.8408
chon	-11.8411
▁sweater	-11.8415
▁proprietary	-11.8415
▁affiliated	-11.8415
▁neglect	-11.8416
▁lovers	-11.8417
bodily	-11.8419
▁272	-11.842
phase	-11.8421
▁lavender	-11.8422
▁midwest	-11.8424
▁cath	-11.8425
▁patricia	-11.8427
ather	-11.8431
▁sack	-11.8433
▁assure	-11.8434
▁080	-11.8435
▁ionic	-11.8435
▁decree	-11.8435
cum	-11.8436
utilized	-11.8436
▁manipulation	-11.8437
▁differentiate	-11.8437
▁patience	-11.8438
▁candida	-11.8439
▁335	-11.844
predominantly	-11.844
▁suburban	-11.8442
▁narcotic	-11.8444
turn	-11.8445
▁polls	-11.8445
▁certifications	-11.8447
▁mj	-11.8448
▁backyard	-11.8451
▁conf	-11.8452
▁630	-11.8452
▁emails	-11.8453
▁contra	-11.8454
▁woodland	-11.8457
▁1907	-11.8457
▁provincial	-11.8458
▁designing	-11.846
▁blessed	-11.8461
▁koo	-11.8462
pain	-11.8463
▁pastor	-11.8464
▁offence	-11.8464
ania	-11.8464
▁appliance	-11.8466
▁graphs	-11.8467
xen	-11.8467
slav	-11.8468
▁succession	-11.8469
ride	-11.8471
▁wol	-11.8471
▁podcast	-11.8472
▁petr	-11.8473
▁glove	-11.8474
118	-11.8475
▁pathogens	-11.8476
▁cocoa	-11.8476
▁lev	-11.8476
▁rex	-11.8478
▁contractions	-11.8479
▁pla	-11.848
▁287	-11.848
▁charcoal	-11.848
woman	-11.8481
▁borne	-11.8481
kers	-11.8484
borough	-11.8486
▁keywords	-11.8487
▁celsius	-11.8492
gone	-11.8492
▁stephanie	-11.8493
▁muhammad	-11.8495
southwestern	-11.8497
class	-11.8497
▁administrators	-11.8497
mati	-11.8498
▁scary	-11.8498
▁257	-11.8499
▁stuffed	-11.8502
flow	-11.8503
review	-11.8503
posed	-11.8504
▁concomitant	-11.8505
▁vel	-11.8506
▁cali	-11.8512
▁clad	-11.8514
▁undo	-11.8515
▁extracted	-11.8516
makers	-11.8516
▁fargo	-11.8517
mean	-11.8518
▁replica	-11.8519
▁conceptual	-11.8519
▁singers	-11.852
▁islander	-11.852
▁mainland	-11.8521
▁athletics	-11.8522
▁baron	-11.8523
angi	-11.8523
▁installer	-11.8523
▁governance	-11.8525
▁flap	-11.8526
▁axe	-11.8529
▁breasts	-11.853
185	-11.8532
save	-11.8533
governed	-11.8534
mite	-11.8535
▁rotating	-11.8536
▁lowered	-11.8538
▁guru	-11.854
▁riders	-11.854
▁dangers	-11.8542
187	-11.8542
▁donna	-11.8542
▁auditor	-11.8546
▁319	-11.8547
contact	-11.8548
▁fingerprint	-11.8549
nning	-11.8551
nonetheless	-11.8551
ographic	-11.8553
twentieth	-11.8554
▁283	-11.8555
▁psychic	-11.8556
▁tasty	-11.8559
▁magazines	-11.8562
lab	-11.8564
▁dividends	-11.8564
▁402	-11.8564
itic	-11.8566
▁senses	-11.8567
▁viable	-11.8568
▁boxing	-11.8569
▁bucks	-11.8571
▁fuels	-11.8574
bag	-11.8574
▁awful	-11.8576
moor	-11.8577
▁cdp	-11.8577
▁buffet	-11.8581
lev	-11.8581
▁intercourse	-11.8583
flor	-11.8583
▁anxious	-11.8584
▁prototype	-11.8584
▁mutant	-11.8584
riz	-11.8584
▁lipo	-11.8586
▁weighing	-11.8589
▁gir	-11.859
▁razor	-11.8591
▁scheduling	-11.8592
▁malaria	-11.8592
▁chelsea	-11.8593
▁324	-11.8593
▁retailer	-11.8593
▁020	-11.8597
▁flavour	-11.8597
▁downloaded	-11.8598
▁tragic	-11.8602
▁detergent	-11.8602
▁confined	-11.8605
▁sigma	-11.8605
▁wired	-11.8606
▁aneurysm	-11.8607
▁rendered	-11.8611
▁mercedes	-11.8613
▁tracy	-11.8615
▁quarterback	-11.8619
▁phantom	-11.862
▁lobster	-11.862
▁config	-11.862
▁wallet	-11.862
ideally	-11.8621
pla	-11.8622
▁neal	-11.8623
piece	-11.8623
▁printable	-11.8625
▁privileges	-11.8625
▁garcia	-11.8629
▁drone	-11.863
level	-11.8632
▁morphine	-11.8633
▁extinct	-11.8634
cost	-11.8637
▁homeless	-11.8639
▁neg	-11.8639
marital	-11.864
▁incurred	-11.8641
▁alot	-11.8641
▁dessert	-11.8641
▁ratios	-11.8641
▁audi	-11.8642
▁bytes	-11.8642
▁mercy	-11.8643
▁580	-11.8644
▁308	-11.8644
▁exercising	-11.8645
▁dmv	-11.8645
▁accessibility	-11.8645
▁sovereign	-11.8646
▁adrian	-11.8649
▁driveway	-11.865
arth	-11.8652
walk	-11.8654
▁aggression	-11.8654
gui	-11.8655
▁springer	-11.8658
▁boring	-11.8658
▁esta	-11.8659
▁hierarchy	-11.8659
▁decorative	-11.866
▁truman	-11.8661
▁trailers	-11.8661
shu	-11.8665
▁brigade	-11.8667
▁labeling	-11.8667
oclc	-11.8668
350	-11.8669
▁clips	-11.8669
yard	-11.8671
▁strive	-11.8672
▁660	-11.8674
▁roofing	-11.8677
▁prisoner	-11.8678
criticized	-11.868
▁eager	-11.8682
▁artillery	-11.8684
▁bak	-11.8685
▁placenta	-11.8686
undiagnosed	-11.8686
▁feat	-11.8687
▁positively	-11.8688
eros	-11.8689
▁cutter	-11.8691
each	-11.8693
▁gur	-11.8694
▁winston	-11.8695
▁neat	-11.8696
▁births	-11.8696
450	-11.8696
▁generalized	-11.8696
▁questionnaire	-11.8698
▁352	-11.8698
esco	-11.8698
▁proximity	-11.8699
▁boeing	-11.87
▁mich	-11.8702
▁disappeared	-11.8703
909	-11.8706
▁cyclo	-11.8708
wil	-11.8708
▁weld	-11.8708
▁colin	-11.8709
stand	-11.871
▁aboriginal	-11.8712
▁graves	-11.8712
003	-11.8712
▁titanium	-11.8716
▁grind	-11.8717
scope	-11.8718
hom	-11.8719
▁brom	-11.8719
▁ivan	-11.872
125	-11.872
▁bats	-11.8723
130	-11.8724
▁directive	-11.8728
▁cervix	-11.8729
roid	-11.8729
▁analysts	-11.8729
▁undergoing	-11.8734
extensively	-11.8735
▁voter	-11.8736
160	-11.8736
▁establishments	-11.8736
▁314	-11.8737
text	-11.8737
teaches	-11.8738
stru	-11.8738
▁compensate	-11.8739
▁leonardo	-11.8742
▁pluto	-11.8742
▁inequality	-11.8743
▁append	-11.8743
▁pdt	-11.8743
▁ninth	-11.8744
▁checklist	-11.8745
▁brutal	-11.8746
quit	-11.875
▁typing	-11.8751
▁shout	-11.8752
▁recession	-11.8754
▁michel	-11.8756
▁hetero	-11.8756
flex	-11.8757
797	-11.8758
▁inmates	-11.8759
▁990	-11.876
▁invent	-11.876
ckle	-11.8761
▁pirates	-11.8761
▁wig	-11.8761
ider	-11.8762
▁recruitment	-11.8762
▁outfits	-11.8762
▁thereof	-11.8762
▁inhalation	-11.8762
▁kom	-11.8766
▁rumor	-11.8767
uter	-11.877
hot	-11.8771
dron	-11.8771
▁tama	-11.8773
▁adverb	-11.8774
▁investigated	-11.8775
▁subtract	-11.8777
▁334	-11.8778
▁generous	-11.878
▁precursor	-11.8783
▁talented	-11.8783
▁inherent	-11.8786
▁cyrus	-11.8788
▁cardinal	-11.8788
hun	-11.8789
▁delays	-11.8792
▁strengths	-11.8796
▁pledge	-11.8796
▁bred	-11.8798
while	-11.8799
▁brooke	-11.8802
▁benchmark	-11.8802
▁soybean	-11.8803
▁unto	-11.8803
updated	-11.8805
▁rugby	-11.8807
▁nationality	-11.8807
▁incentives	-11.8808
▁scoop	-11.881
▁thesis	-11.8811
▁coco	-11.8811
arry	-11.8812
▁modules	-11.8814
▁promotional	-11.8815
▁davidson	-11.8816
evolving	-11.8817
▁naomi	-11.8818
▁327	-11.8819
▁sorted	-11.882
▁protector	-11.882
search	-11.8821
▁syrian	-11.8822
erra	-11.8824
▁bloomberg	-11.8824
lessness	-11.8825
▁1904	-11.8825
times	-11.8826
▁exclude	-11.8826
kawa	-11.8827
▁lined	-11.8828
▁sometime	-11.8828
▁barb	-11.8829
▁frontal	-11.883
▁345	-11.8831
▁pratt	-11.8833
▁stripes	-11.8834
907	-11.8837
lating	-11.8837
▁blown	-11.8841
▁tens	-11.8842
▁hives	-11.8842
▁intimate	-11.8845
▁rounds	-11.8845
▁duncan	-11.8846
▁306	-11.8847
north	-11.8849
lingerie	-11.8851
▁toxin	-11.8852
▁chord	-11.8852
▁blogs	-11.8853
storm	-11.8853
spelled	-11.8854
shot	-11.8856
lbs	-11.8856
▁266	-11.8859
▁fac	-11.886
▁asphalt	-11.8861
▁barber	-11.8861
rado	-11.8861
pertaining	-11.8861
eger	-11.8862
ground	-11.8863
▁271	-11.8863
▁crawl	-11.8864
uva	-11.8864
▁crank	-11.8864
▁311	-11.8866
tree	-11.8867
specifies	-11.8868
▁gerald	-11.8869
▁omni	-11.887
ching	-11.887
sure	-11.8873
▁dav	-11.8878
great	-11.8878
▁mitochondria	-11.8883
▁smash	-11.8883
▁worsen	-11.8884
▁pots	-11.8884
▁490	-11.8884
pedia	-11.8886
aug	-11.8886
▁permissions	-11.8887
905	-11.8887
sheet	-11.8888
▁scans	-11.8891
▁pasture	-11.8891
ogue	-11.8891
▁purely	-11.8893
▁presley	-11.8895
▁finest	-11.8895
▁attic	-11.8898
▁swell	-11.8899
cian	-11.89
▁foliage	-11.8902
301	-11.8905
myocardial	-11.8905
▁1903	-11.8905
▁sediment	-11.8908
▁celebrating	-11.8911
▁flickr	-11.8912
▁stenosis	-11.8914
▁wit	-11.8916
▁helper	-11.8916
▁latex	-11.8917
▁louisville	-11.8918
positioned	-11.8921
▁notebook	-11.8922
▁pistol	-11.8923
indi	-11.8925
▁sweep	-11.8926
▁skinny	-11.8928
fle	-11.8928
▁sorts	-11.8929
plant	-11.8929
▁wines	-11.8929
aligned	-11.893
▁annie	-11.8933
▁glance	-11.8934
▁309	-11.8934
▁larvae	-11.8935
[...]
